{
  "version": "1.0",
  "truncation": null,
  "padding": null,
  "added_tokens": [
    {
      "id": 0,
      "content": "<pad>",
      "single_word": false,
      "lstrip": false,
      "rstrip": false,
      "normalized": false,
      "special": true
    },
    {
      "id": 1,
      "content": "<unk>",
      "single_word": false,
      "lstrip": false,
      "rstrip": false,
      "normalized": false,
      "special": true
    },
    {
      "id": 2,
      "content": "<bos>",
      "single_word": false,
      "lstrip": false,
      "rstrip": false,
      "normalized": false,
      "special": true
    },
    {
      "id": 3,
      "content": "<eos>",
      "single_word": false,
      "lstrip": false,
      "rstrip": false,
      "normalized": false,
      "special": true
    },
    {
      "id": 4,
      "content": "<user>",
      "single_word": false,
      "lstrip": false,
      "rstrip": false,
      "normalized": false,
      "special": true
    },
    {
      "id": 5,
      "content": "<assistant>",
      "single_word": false,
      "lstrip": false,
      "rstrip": false,
      "normalized": false,
      "special": true
    },
    {
      "id": 6,
      "content": "<system>",
      "single_word": false,
      "lstrip": false,
      "rstrip": false,
      "normalized": false,
      "special": true
    }
  ],
  "normalizer": {
    "type": "Sequence",
    "normalizers": [
      {
        "type": "NFKC"
      }
    ]
  },
  "pre_tokenizer": {
    "type": "ByteLevel",
    "add_prefix_space": false,
    "trim_offsets": true,
    "use_regex": true
  },
  "post_processor": null,
  "decoder": {
    "type": "ByteLevel",
    "add_prefix_space": true,
    "trim_offsets": true,
    "use_regex": true
  },
  "model": {
    "type": "BPE",
    "dropout": null,
    "unk_token": "<unk>",
    "continuing_subword_prefix": null,
    "end_of_word_suffix": null,
    "fuse_unk": false,
    "byte_fallback": false,
    "ignore_merges": false,
    "vocab": {
      "<pad>": 0,
      "<unk>": 1,
      "<bos>": 2,
      "<eos>": 3,
      "<user>": 4,
      "<assistant>": 5,
      "<system>": 6,
      "!": 7,
      "\"": 8,
      "#": 9,
      "$": 10,
      "%": 11,
      "&": 12,
      "'": 13,
      "(": 14,
      ")": 15,
      "*": 16,
      "+": 17,
      ",": 18,
      "-": 19,
      ".": 20,
      "/": 21,
      "0": 22,
      "1": 23,
      "2": 24,
      "3": 25,
      "4": 26,
      "5": 27,
      "6": 28,
      "7": 29,
      "8": 30,
      "9": 31,
      ":": 32,
      ";": 33,
      "<": 34,
      "=": 35,
      ">": 36,
      "?": 37,
      "@": 38,
      "A": 39,
      "B": 40,
      "C": 41,
      "D": 42,
      "E": 43,
      "F": 44,
      "G": 45,
      "H": 46,
      "I": 47,
      "J": 48,
      "K": 49,
      "L": 50,
      "M": 51,
      "N": 52,
      "O": 53,
      "P": 54,
      "Q": 55,
      "R": 56,
      "S": 57,
      "T": 58,
      "U": 59,
      "V": 60,
      "W": 61,
      "X": 62,
      "Y": 63,
      "Z": 64,
      "[": 65,
      "\\": 66,
      "]": 67,
      "^": 68,
      "_": 69,
      "`": 70,
      "a": 71,
      "b": 72,
      "c": 73,
      "d": 74,
      "e": 75,
      "f": 76,
      "g": 77,
      "h": 78,
      "i": 79,
      "j": 80,
      "k": 81,
      "l": 82,
      "m": 83,
      "n": 84,
      "o": 85,
      "p": 86,
      "q": 87,
      "r": 88,
      "s": 89,
      "t": 90,
      "u": 91,
      "v": 92,
      "w": 93,
      "x": 94,
      "y": 95,
      "z": 96,
      "{": 97,
      "|": 98,
      "}": 99,
      "~": 100,
      "¡": 101,
      "¢": 102,
      "£": 103,
      "¤": 104,
      "¥": 105,
      "¦": 106,
      "§": 107,
      "¨": 108,
      "©": 109,
      "ª": 110,
      "«": 111,
      "¬": 112,
      "®": 113,
      "¯": 114,
      "°": 115,
      "±": 116,
      "²": 117,
      "³": 118,
      "´": 119,
      "µ": 120,
      "¶": 121,
      "·": 122,
      "¸": 123,
      "¹": 124,
      "º": 125,
      "»": 126,
      "¼": 127,
      "½": 128,
      "¾": 129,
      "¿": 130,
      "Â": 131,
      "Ã": 132,
      "Ä": 133,
      "Å": 134,
      "Æ": 135,
      "Ç": 136,
      "È": 137,
      "É": 138,
      "Ê": 139,
      "Ë": 140,
      "Ì": 141,
      "Î": 142,
      "Ï": 143,
      "Ð": 144,
      "Ñ": 145,
      "Ò": 146,
      "Ó": 147,
      "Õ": 148,
      "Ö": 149,
      "×": 150,
      "Ø": 151,
      "Ù": 152,
      "Ú": 153,
      "Û": 154,
      "à": 155,
      "á": 156,
      "â": 157,
      "ã": 158,
      "ä": 159,
      "å": 160,
      "æ": 161,
      "ç": 162,
      "è": 163,
      "é": 164,
      "ê": 165,
      "ë": 166,
      "ì": 167,
      "í": 168,
      "ï": 169,
      "ð": 170,
      "Ċ": 171,
      "Ġ": 172,
      "Ģ": 173,
      "ģ": 174,
      "Ĥ": 175,
      "ĥ": 176,
      "Ħ": 177,
      "ħ": 178,
      "Ĩ": 179,
      "ĩ": 180,
      "Ī": 181,
      "ī": 182,
      "Ĭ": 183,
      "ĭ": 184,
      "Į": 185,
      "į": 186,
      "İ": 187,
      "ı": 188,
      "Ĳ": 189,
      "ĳ": 190,
      "Ĵ": 191,
      "ĵ": 192,
      "Ķ": 193,
      "ķ": 194,
      "ĸ": 195,
      "Ĺ": 196,
      "ĺ": 197,
      "Ļ": 198,
      "ļ": 199,
      "Ľ": 200,
      "ľ": 201,
      "Ŀ": 202,
      "ŀ": 203,
      "Ł": 204,
      "ł": 205,
      "Ń": 206,
      "Ġa": 207,
      "Ġt": 208,
      "Ġd": 209,
      "es": 210,
      "er": 211,
      "in": 212,
      "en": 213,
      "Ġp": 214,
      "Ġc": 215,
      "Ġo": 216,
      "Ġs": 217,
      "ar": 218,
      "or": 219,
      "on": 220,
      "Ġth": 221,
      "is": 222,
      "an": 223,
      "Ġe": 224,
      "as": 225,
      "os": 226,
      "re": 227,
      "Ġm": 228,
      "at": 229,
      "al": 230,
      "Ġde": 231,
      "it": 232,
      "Ġf": 233,
      "Ġthe": 234,
      "ent": 235,
      "ic": 236,
      "om": 237,
      "ad": 238,
      "Ġn": 239,
      "Ġb": 240,
      "qu": 241,
      "Ġin": 242,
      "Ġw": 243,
      "ed": 244,
      "ro": 245,
      "Ġan": 246,
      "Ã£": 247,
      "Ã£o": 248,
      "le": 249,
      "ou": 250,
      "am": 251,
      "ing": 252,
      "Ġof": 253,
      "id": 254,
      "Ġh": 255,
      "el": 256,
      "Ġto": 257,
      "ion": 258,
      "Ã§": 259,
      "Ġu": 260,
      "Ġqu": 261,
      "em": 262,
      "Ġand": 263,
      "im": 264,
      "il": 265,
      "Ġcom": 266,
      "Ġv": 267,
      "ra": 268,
      "Ġl": 269,
      "Ġre": 270,
      "ia": 271,
      "ol": 272,
      "ec": 273,
      "est": 274,
      "iv": 275,
      "Ã©": 276,
      "Ã¡": 277,
      "Ġque": 278,
      "ĠA": 279,
      "âĢ": 280,
      "Ġg": 281,
      "et": 282,
      "ĠC": 283,
      "Ġdo": 284,
      "Ġcon": 285,
      "ut": 286,
      "ir": 287,
      "Ġpar": 288,
      "ĠS": 289,
      "ur": 290,
      "ess": 291,
      "ac": 292,
      "ul": 293,
      "st": 294,
      "Ġum": 295,
      "ri": 296,
      "ĠT": 297,
      "Ã§Ã£o": 298,
      "Ġse": 299,
      "un": 300,
      "ĠP": 301,
      "do": 302,
      "Ġem": 303,
      "Ġno": 304,
      "Ġas": 305,
      "Ġpro": 306,
      "Ġis": 307,
      "ant": 308,
      "Ġfor": 309,
      "ist": 310,
      "ig": 311,
      "ĠM": 312,
      "Ġda": 313,
      "ÃŃ": 314,
      "Ġr": 315,
      "he": 316,
      "od": 317,
      "us": 318,
      "Ġpara": 319,
      "oc": 320,
      "ĠE": 321,
      "ĠI": 322,
      "ter": 323,
      "Ġal": 324,
      "ation": 325,
      "ce": 326,
      "um": 327,
      "th": 328,
      "ers": 329,
      "Ġma": 330,
      "ly": 331,
      "Ġon": 332,
      "Ġsu": 333,
      "ve": 334,
      "Ġex": 335,
      "ĠB": 336,
      "if": 337,
      "ĠD": 338,
      "Ġ(": 339,
      "Ġbe": 340,
      "ado": 341,
      "Ġ1": 342,
      "Ġat": 343,
      "ente": 344,
      "ag": 345,
      "ab": 346,
      "ho": 347,
      "Ġy": 348,
      "Ġthat": 349,
      "Ãª": 350,
      "Ġpr": 351,
      "Ġest": 352,
      "Ġst": 353,
      "iz": 354,
      "Ã³": 355,
      "aÃ§Ã£o": 356,
      "ort": 357,
      "ĠÃ©": 358,
      "ct": 359,
      "ade": 360,
      "ĠF": 361,
      "ver": 362,
      "ĠR": 363,
      "ow": 364,
      "ot": 365,
      "ch": 366,
      "ĠN": 367,
      "ith": 368,
      "se": 369,
      "and": 370,
      "ci": 371,
      "Ġ2": 372,
      "Ġuma": 373,
      "ĠO": 374,
      "ĠâĢ": 375,
      "og": 376,
      "Ġare": 377,
      "Ġyou": 378,
      "Ġwh": 379,
      "Ġen": 380,
      "ud": 381,
      "Ġor": 382,
      "Ġj": 383,
      "Ġap": 384,
      "Ġwith": 385,
      "Ġit": 386,
      "ĠG": 387,
      "Ġos": 388,
      "ĠL": 389,
      "ta": 390,
      "op": 391,
      "ada": 392,
      "ĠH": 393,
      "Ãµ": 394,
      "end": 395,
      "ento": 396,
      "Ãµes": 397,
      "so": 398,
      "ect": 399,
      "Ġna": 400,
      "ere": 401,
      "ap": 402,
      "ay": 403,
      "to": 404,
      "Ġac": 405,
      "te": 406,
      "Ġser": 407,
      "Ġim": 408,
      "Ġpor": 409,
      "Ġle": 410,
      "pl": 411,
      "ate": 412,
      "ill": 413,
      "esp": 414,
      "âĢĻ": 415,
      "Ġch": 416,
      "Ġfr": 417,
      "ica": 418,
      "idade": 419,
      "ĠnÃ£o": 420,
      "ial": 421,
      "ando": 422,
      "ĠW": 423,
      "Ġcomp": 424,
      "ei": 425,
      "du": 426,
      "ost": 427,
      "ĠÃ": 428,
      "vel": 429,
      "Ġcont": 430,
      "ens": 431,
      "ĠThe": 432,
      "ip": 433,
      "ity": 434,
      "Ġcan": 435,
      "for": 436,
      "ob": 437,
      "per": 438,
      "Ġdes": 439,
      "av": 440,
      "Ġpre": 441,
      "Ġtr": 442,
      "nd": 443,
      "Ġmais": 444,
      "ados": 445,
      "ies": 446,
      "ment": 447,
      "Ġper": 448,
      "ive": 449,
      "00": 450,
      "Ġdis": 451,
      "Ġab": 452,
      "ear": 453,
      "ĠJ": 454,
      "âĢĿ": 455,
      "Ã§Ãµes": 456,
      "ke": 457,
      "ito": 458,
      "ma": 459,
      "ld": 460,
      "io": 461,
      "de": 462,
      "Ġby": 463,
      "pr": 464,
      "ha": 465,
      "port": 466,
      "ib": 467,
      "Ġne": 468,
      "ĠU": 469,
      "ave": 470,
      "ĠV": 471,
      "oss": 472,
      "gu": 473,
      "Ġus": 474,
      "ass": 475,
      "cia": 476,
      "Ġfrom": 477,
      "ht": 478,
      "ure": 479,
      "Ġcomo": 480,
      "ais": 481,
      "Ġpl": 482,
      "Ġdos": 483,
      "ores": 484,
      "..": 485,
      "Ãº": 486,
      "ult": 487,
      "Ġtem": 488,
      "ual": 489,
      "Ġwas": 490,
      "ĠâĢľ": 491,
      "Ġout": 492,
      "ans": 493,
      "ine": 494,
      "Ġres": 495,
      "Ġar": 496,
      "Ġent": 497,
      "Ġpod": 498,
      "Ã©m": 499,
      "Ġcl": 500,
      "Ġnot": 501,
      "ical": 502,
      "cl": 503,
      "ire": 504,
      "Ġad": 505,
      "ont": 506,
      "ĠIn": 507,
      "Ġpel": 508,
      "ust": 509,
      "ast": 510,
      "ome": 511,
      "ind": 512,
      "ge": 513,
      "ore": 514,
      "Ã¡ri": 515,
      "Ġhave": 516,
      "gr": 517,
      "Ãªn": 518,
      "Ġou": 519,
      "ard": 520,
      "ru": 521,
      "Ã§a": 522,
      "ide": 523,
      "Ġao": 524,
      "ell": 525,
      "all": 526,
      "ico": 527,
      "Ġthis": 528,
      "pt": 529,
      "Ġwe": 530,
      "fer": 531,
      "ĠTh": 532,
      "ante": 533,
      "our": 534,
      "ite": 535,
      "Ġmu": 536,
      "Ġwor": 537,
      "ras": 538,
      "po": 539,
      "ther": 540,
      "ido": 541,
      "Ġcar": 542,
      "und": 543,
      "Ġpart": 544,
      "Ġme": 545,
      "Ġter": 546,
      "ub": 547,
      "ich": 548,
      "az": 549,
      "ov": 550,
      "her": 551,
      "Ġhe": 552,
      "Ġinter": 553,
      "ions": 554,
      "nt": 555,
      "ida": 556,
      "ocÃª": 557,
      "esc": 558,
      "Ġ20": 559,
      "Ġfo": 560,
      "Ġam": 561,
      "Ġsp": 562,
      "Ġman": 563,
      "Ġrec": 564,
      "ug": 565,
      "out": 566,
      "ould": 567,
      "esso": 568,
      "ĠÃł": 569,
      "Ġtra": 570,
      "ated": 571,
      "ix": 572,
      "Ġyour": 573,
      "ater": 574,
      "Ġesp": 575,
      "Ġass": 576,
      "Ġcons": 577,
      "ific": 578,
      "Ġk": 579,
      "amento": 580,
      "Ġtheir": 581,
      "ional": 582,
      "que": 583,
      "co": 584,
      "ase": 585,
      "ach": 586,
      "Ġdas": 587,
      "ff": 588,
      "The": 589,
      "ong": 590,
      "Ġele": 591,
      "ura": 592,
      "ign": 593,
      "form": 594,
      "Ġpe": 595,
      "ĠvocÃª": 596,
      "ence": 597,
      "ents": 598,
      "Ġsh": 599,
      "amb": 600,
      "mo": 601,
      "ous": 602,
      "Ãªncia": 603,
      "Ġev": 604,
      "art": 605,
      "Ġte": 606,
      "Ġsem": 607,
      "amente": 608,
      "Ġ3": 609,
      "act": 610,
      "Ġob": 611,
      "adas": 612,
      "Ġthey": 613,
      "Ġco": 614,
      "Ġwill": 615,
      "Ġsua": 616,
      "Ġgo": 617,
      "ora": 618,
      "Ġro": 619,
      "ance": 620,
      "Ġfe": 621,
      "Ġall": 622,
      "age": 623,
      "Ġwhich": 624,
      "ks": 625,
      "Ġun": 626,
      "ie": 627,
      "Ġseu": 628,
      "ight": 629,
      "ord": 630,
      "Ġgr": 631,
      "ain": 632,
      "Ġmore": 633,
      "rig": 634,
      "ese": 635,
      "ons": 636,
      "Ġrel": 637,
      "Ġhas": 638,
      "ile": 639,
      "Ġsa": 640,
      "ime": 641,
      "Ġdif": 642,
      "aus": 643,
      "ĠâĢĵ": 644,
      "iss": 645,
      "Ġcol": 646,
      "Ġag": 647,
      "Ġso": 648,
      "Ġver": 649,
      "lic": 650,
      "imento": 651,
      "ations": 652,
      ").": 653,
      "king": 654,
      "Ġ19": 655,
      "pos": 656,
      "Ġcr": 657,
      "entes": 658,
      "Ġsob": 659,
      "ros": 660,
      "Ġ\"": 661,
      "mente": 662,
      "ian": 663,
      "Ġfoi": 664,
      "ativ": 665,
      "ish": 666,
      "Ġel": 667,
      "ĠK": 668,
      "olog": 669,
      "Ġtod": 670,
      "ary": 671,
      "ue": 672,
      "one": 673,
      "Ġ-": 674,
      "Ġess": 675,
      "up": 676,
      "ambÃ©m": 677,
      "ina": 678,
      "ber": 679,
      "ĠSe": 680,
      "ild": 681,
      "endo": 682,
      "Ġcas": 683,
      "ular": 684,
      "Ġmas": 685,
      "ice": 686,
      "Ġnos": 687,
      "cess": 688,
      "ĠCom": 689,
      "ep": 690,
      "ias": 691,
      "Ġreg": 692,
      "orn": 693,
      "mer": 694,
      "ĠsÃ£o": 695,
      "ior": 696,
      "able": 697,
      "ame": 698,
      "ades": 699,
      "),": 700,
      "Ġbut": 701,
      "pres": 702,
      "Ġmar": 703,
      "wn": 704,
      "ador": 705,
      "Ġalso": 706,
      "Ġreal": 707,
      "oo": 708,
      "cis": 709,
      "ely": 710,
      "Ġfaz": 711,
      "Ġsobre": 712,
      "ria": 713,
      "ĠAl": 714,
      "ack": 715,
      "amos": 716,
      "ĠCh": 717,
      "int": 718,
      "ple": 719,
      "ace": 720,
      "Ã¢": 721,
      "ĠtambÃ©m": 722,
      "Ġcor": 723,
      "reat": 724,
      "Ġposs": 725,
      "Ã¡rio": 726,
      "Ġone": 727,
      "ara": 728,
      "Ġmes": 729,
      "Ġpode": 730,
      "eira": 731,
      "Ġve": 732,
      "Ã§o": 733,
      "'s": 734,
      "ivers": 735,
      "va": 736,
      "ca": 737,
      "ja": 738,
      "pe": 739,
      "ond": 740,
      "elh": 741,
      "ista": 742,
      "Ġwere": 743,
      "Ġqual": 744,
      "entos": 745,
      "anto": 746,
      "Ġesc": 747,
      "rit": 748,
      "Ġresp": 749,
      "Ġincl": 750,
      "inal": 751,
      "Ġinc": 752,
      "pre": 753,
      "Ġmin": 754,
      "ry": 755,
      "Ġ201": 756,
      "Ġpres": 757,
      "ces": 758,
      "vol": 759,
      "ert": 760,
      "ĠestÃ¡": 761,
      "Ġabout": 762,
      "Ġother": 763,
      "bal": 764,
      "dit": 765,
      "vi": 766,
      "ĠDe": 767,
      "ble": 768,
      "lo": 769,
      "Ġstud": 770,
      "ata": 771,
      "Ġtrans": 772,
      "Ġimport": 773,
      "agem": 774,
      "ĠAs": 775,
      "ory": 776,
      "ira": 777,
      "ĠSt": 778,
      "ose": 779,
      "eral": 780,
      "Ġmost": 781,
      "Ġalg": 782,
      "Ġentre": 783,
      "ang": 784,
      "icas": 785,
      "rib": 786,
      "ction": 787,
      "Ġmuito": 788,
      "Ġpol": 789,
      "pro": 790,
      "Ġind": 791,
      "Ġwho": 792,
      "ors": 793,
      "Ġup": 794,
      "||": 795,
      "are": 796,
      "Ġsy": 797,
      "ĠIt": 798,
      "Ġaf": 799,
      "Ġthem": 800,
      "Ġprodu": 801,
      "Ġ4": 802,
      "Ġpesso": 803,
      "Ġdia": 804,
      "Ġenc": 805,
      "ĠUn": 806,
      "Ġdire": 807,
      "Ġ5": 808,
      "Ġpo": 809,
      "Ġform": 810,
      "Ġpelo": 811,
      "ph": 812,
      "Ġits": 813,
      "...": 814,
      "now": 815,
      "Ġmod": 816,
      "Ġsc": 817,
      "ount": 818,
      "idades": 819,
      "ric": 820,
      "undo": 821,
      "Ġta": 822,
      "Ġinst": 823,
      "Ġaut": 824,
      "ys": 825,
      "Ġbo": 826,
      "ne": 827,
      "Ġinf": 828,
      "Ġpass": 829,
      "res": 830,
      "Ġjog": 831,
      "iÃ§Ã£o": 832,
      "Ġmay": 833,
      "gan": 834,
      "ato": 835,
      "Ġdest": 836,
      "iro": 837,
      "Ġbec": 838,
      "Ã´": 839,
      "Ġpela": 840,
      "ound": 841,
      "erg": 842,
      "Ġtime": 843,
      "ople": 844,
      "Ġcomm": 845,
      "Ġthan": 846,
      "com": 847,
      "Ġsol": 848,
      "ĠY": 849,
      "ree": 850,
      "ced": 851,
      "Ġmed": 852,
      "ios": 853,
      "Ġsoc": 854,
      "Ġop": 855,
      "Ġsome": 856,
      "Ġli": 857,
      "les": 858,
      "ates": 859,
      "Ġhis": 860,
      "Ġprov": 861,
      "fic": 862,
      "ech": 863,
      "Ġsim": 864,
      "rar": 865,
      "Ã³s": 866,
      "ai": 867,
      "Ġloc": 868,
      "ings": 869,
      "antes": 870,
      "erv": 871,
      "Ġwhen": 872,
      "Ġyear": 873,
      "idos": 874,
      "Ġgro": 875,
      "Ġsub": 876,
      "ece": 877,
      "aÃ§Ãµes": 878,
      "tain": 879,
      "Ġra": 880,
      "Ġinto": 881,
      "ĠThis": 882,
      "inda": 883,
      "itos": 884,
      "Ġval": 885,
      "Ġcap": 886,
      "Ġbeen": 887,
      "ivo": 888,
      "ino": 889,
      "Ġfl": 890,
      "ĠPro": 891,
      "tim": 892,
      "Ġhel": 893,
      "Ġhow": 894,
      "Ġconf": 895,
      "ene": 896,
      "cer": 897,
      "gram": 898,
      "ĠjÃ¡": 899,
      "Ġthere": 900,
      "alth": 901,
      "Ġtrabal": 902,
      "con": 903,
      "ied": 904,
      "Ġuse": 905,
      "Ġpra": 906,
      "oug": 907,
      "Ġpeople": 908,
      "ugh": 909,
      "ĠRe": 910,
      "ĠEst": 911,
      "20": 912,
      "Ġthese": 913,
      "Ġact": 914,
      "ita": 915,
      "par": 916,
      "Ġart": 917,
      "igh": 918,
      "ject": 919,
      "Ġover": 920,
      "Ġinv": 921,
      "Ġmelh": 922,
      "Ġund": 923,
      "Ġour": 924,
      "fe": 925,
      "Ġant": 926,
      "Ġer": 927,
      "ran": 928,
      "Ġpers": 929,
      "Ġprof": 930,
      "Ġnov": 931,
      "tern": 932,
      "ren": 933,
      "cul": 934,
      "Ġseg": 935,
      "Ġmet": 936,
      "ÃŃvel": 937,
      "ause": 938,
      "vern": 939,
      "adores": 940,
      "Ġnum": 941,
      "orm": 942,
      "Ġcur": 943,
      "Ġsur": 944,
      "Ġins": 945,
      "Ġpartic": 946,
      "Ġcam": 947,
      "Ġequ": 948,
      "Ġmil": 949,
      "ĠatÃ©": 950,
      "Ġvis": 951,
      "ws": 952,
      "itu": 953,
      "ities": 954,
      "Ġint": 955,
      "ĠMar": 956,
      "Ġexper": 957,
      "har": 958,
      "Ġbet": 959,
      "ays": 960,
      "Ġfun": 961,
      "ĠQ": 962,
      "irst": 963,
      "jet": 964,
      "eiro": 965,
      "iliz": 966,
      "we": 967,
      "Ġfil": 968,
      "Ġprim": 969,
      "ural": 970,
      "rio": 971,
      "ecial": 972,
      "Ġknow": 973,
      "ĠÃ¡": 974,
      "Ġneed": 975,
      "In": 976,
      "ider": 977,
      "Ã¡rios": 978,
      "Ġmen": 979,
      "Ġdur": 980,
      "min": 981,
      "let": 982,
      "velop": 983,
      "Ġ200": 984,
      "Ġhelp": 985,
      "uro": 986,
      "ook": 987,
      "ital": 988,
      "stem": 989,
      "ffect": 990,
      "inha": 991,
      "Ġrece": 992,
      "Ġseus": 993,
      "indo": 994,
      "Ġisso": 995,
      "Ġanos": 996,
      "Ġcri": 997,
      "Ġunder": 998,
      "anÃ§": 999,
      "Ġresult": 1000,
      "Ġif": 1001,
      "Ġsuch": 1002,
      "Ġbl": 1003,
      "arn": 1004,
      "rough": 1005,
      "Ġinform": 1006,
      "ft": 1007,
      "Ġgen": 1008,
      "Ġwork": 1009,
      "Ġinclud": 1010,
      "idas": 1011,
      "ational": 1012,
      "Ġnas": 1013,
      "ins": 1014,
      "wo": 1015,
      "iet": 1016,
      "rat": 1017,
      "emb": 1018,
      "ĠEn": 1019,
      "ak": 1020,
      "duc": 1021,
      "Ġfam": 1022,
      "Ġproble": 1023,
      "Ġhad": 1024,
      "Ġhist": 1025,
      "Ã¡t": 1026,
      "Ġhum": 1027,
      "Th": 1028,
      "ise": 1029,
      "ath": 1030,
      "ĠWh": 1031,
      "ecess": 1032,
      "Ġconst": 1033,
      "ident": 1034,
      "Ġvez": 1035,
      "udo": 1036,
      "ÃŃs": 1037,
      "ĠCon": 1038,
      "uc": 1039,
      "Ġainda": 1040,
      "Ġany": 1041,
      "Ġext": 1042,
      "ĠAn": 1043,
      "veis": 1044,
      "aix": 1045,
      "aram": 1046,
      "Ġused": 1047,
      "emos": 1048,
      "Ġ6": 1049,
      "Ġoc": 1050,
      "Ġano": 1051,
      "icos": 1052,
      "cio": 1053,
      "Ġcent": 1054,
      "Ġwould": 1055,
      "Ġaqu": 1056,
      "me": 1057,
      "ava": 1058,
      "Ġfazer": 1059,
      "Ġsho": 1060,
      "Ġmesmo": 1061,
      "ana": 1062,
      "Ġcer": 1063,
      "Ġwhat": 1064,
      "Ġlong": 1065,
      "earch": 1066,
      "Ġvar": 1067,
      "volv": 1068,
      "Ãªs": 1069,
      "Ġchild": 1070,
      "Ġempres": 1071,
      "Ġdef": 1072,
      "pan": 1073,
      "Ã¢n": 1074,
      "Ġfal": 1075,
      "hos": 1076,
      "hec": 1077,
      "Ġsign": 1078,
      "ating": 1079,
      "unic": 1080,
      "enas": 1081,
      "Ġdist": 1082,
      "xim": 1083,
      "ower": 1084,
      "Ġonly": 1085,
      "Ġliv": 1086,
      "por": 1087,
      "Ġset": 1088,
      "cion": 1089,
      "Ġbem": 1090,
      "xo": 1091,
      "Ġthrough": 1092,
      "Ġdevelop": 1093,
      "Ġfirst": 1094,
      "Ġdec": 1095,
      "ublic": 1096,
      "Ġnecess": 1097,
      "Ġmany": 1098,
      "man": 1099,
      "Ġnat": 1100,
      "dut": 1101,
      "ics": 1102,
      "Ġtodos": 1103,
      "ĠBras": 1104,
      "Ġnew": 1105,
      "Ġimp": 1106,
      "cur": 1107,
      "ten": 1108,
      "ful": 1109,
      "ily": 1110,
      "Ġdiffer": 1111,
      "ĠÃº": 1112,
      "Ġexpl": 1113,
      "Ġprogram": 1114,
      "Ġche": 1115,
      "rav": 1116,
      "Ġquando": 1117,
      "ĠEs": 1118,
      "izaÃ§Ã£o": 1119,
      "la": 1120,
      "cial": 1121,
      "Ġpos": 1122,
      "Ġprin": 1123,
      "Ġgrand": 1124,
      "Ġpessoas": 1125,
      "red": 1126,
      "ÃŃt": 1127,
      "âĢĿ,": 1128,
      "Ġprecis": 1129,
      "very": 1130,
      "Ġdesc": 1131,
      "xt": 1132,
      "iver": 1133,
      "Ġvol": 1134,
      "Ġlike": 1135,
      "ern": 1136,
      "ĠprÃ³": 1137,
      "Ġsystem": 1138,
      "abil": 1139,
      "Ġpop": 1140,
      "Ġmo": 1141,
      "ĠEm": 1142,
      "low": 1143,
      "Ġmelhor": 1144,
      "Ġav": 1145,
      "ĠAr": 1146,
      "line": 1147,
      "Ġeu": 1148,
      "Ġhealth": 1149,
      "Ġir": 1150,
      "ĠNe": 1151,
      "quer": 1152,
      "Ġsec": 1153,
      "itar": 1154,
      "Ġsup": 1155,
      "Ġ10": 1156,
      "Ġjust": 1157,
      "anÃ§a": 1158,
      "Ġorgan": 1159,
      "press": 1160,
      "ick": 1161,
      "Ġhigh": 1162,
      "Ġtwo": 1163,
      "ible": 1164,
      "ough": 1165,
      "Ġperson": 1166,
      "ures": 1167,
      "urn": 1168,
      "Ġnoss": 1169,
      "Ġpat": 1170,
      "cias": 1171,
      "Ġsegu": 1172,
      "Ġprocess": 1173,
      "Ġplan": 1174,
      "iar": 1175,
      "tal": 1176,
      "Ġaos": 1177,
      "bl": 1178,
      "Ġdev": 1179,
      "ms": 1180,
      "iu": 1181,
      "its": 1182,
      "Ġwell": 1183,
      "rol": 1184,
      "Ġ7": 1185,
      "old": 1186,
      "esta": 1187,
      "ife": 1188,
      "Ġshould": 1189,
      "istem": 1190,
      "Ã¡vel": 1191,
      "ased": 1192,
      "Ġtempo": 1193,
      "pect": 1194,
      "Ã©d": 1195,
      "Ġ18": 1196,
      "Ġwater": 1197,
      "ram": 1198,
      "ink": 1199,
      "Ġconv": 1200,
      "Ġgovern": 1201,
      "Ġlocal": 1202,
      "Ġcome": 1203,
      "Ġsab": 1204,
      "Ġher": 1205,
      "âĢľ": 1206,
      "Ġneg": 1207,
      "arg": 1208,
      "cy": 1209,
      "ental": 1210,
      "Ġpoder": 1211,
      "ÃŃn": 1212,
      "za": 1213,
      "Ġph": 1214,
      "Ġcontin": 1215,
      "ments": 1216,
      "Ġdep": 1217,
      "ela": 1218,
      "Ġencont": 1219,
      "Com": 1220,
      "Ġ8": 1221,
      "cip": 1222,
      "omet": 1223,
      "Ġsuas": 1224,
      "ret": 1225,
      "Ġforma": 1226,
      "Ġdem": 1227,
      "entar": 1228,
      "Wh": 1229,
      "ĠHe": 1230,
      "Ġget": 1231,
      "Ġprodut": 1232,
      "der": 1233,
      "Ġatt": 1234,
      "Ġpa": 1235,
      "ween": 1236,
      "iros": 1237,
      "als": 1238,
      "inho": 1239,
      "Ã§os": 1240,
      "Ġyears": 1241,
      "arm": 1242,
      "Ġmake": 1243,
      "esse": 1244,
      "forma": 1245,
      "hool": 1246,
      "Ġconsider": 1247,
      "Ġmon": 1248,
      "Ġexperi": 1249,
      "ender": 1250,
      "Ã¡s": 1251,
      "plo": 1252,
      "nolog": 1253,
      "Ġexam": 1254,
      "erc": 1255,
      "Ġcre": 1256,
      "ex": 1257,
      "Ġintern": 1258,
      "Ġut": 1259,
      "Ġsal": 1260,
      "ange": 1261,
      "Ġeste": 1262,
      "Ġcould": 1263,
      "fore": 1264,
      "round": 1265,
      "ious": 1266,
      "ting": 1267,
      "je": 1268,
      "right": 1269,
      "Ġinvest": 1270,
      "Ġtest": 1271,
      "Ġris": 1272,
      "Ġgu": 1273,
      "ever": 1274,
      "mb": 1275,
      "Ġport": 1276,
      "Ġcaus": 1277,
      "Ġbetween": 1278,
      "iente": 1279,
      "elo": 1280,
      "As": 1281,
      "uns": 1282,
      "Ġespecial": 1283,
      "Ġ9": 1284,
      "Ġret": 1285,
      "ants": 1286,
      "Ġequip": 1287,
      "ition": 1288,
      "Ġquest": 1289,
      "ron": 1290,
      "jud": 1291,
      "Ġwhere": 1292,
      "iam": 1293,
      "Ġvida": 1294,
      "Ġbu": 1295,
      "lish": 1296,
      "Ġgl": 1297,
      "igo": 1298,
      "ral": 1299,
      "Ġfic": 1300,
      "has": 1301,
      "Ġresearch": 1302,
      "Ġserv": 1303,
      "19": 1304,
      "Ġalgum": 1305,
      "ĠsÃ³": 1306,
      "Ġlearn": 1307,
      "ative": 1308,
      "Ġfol": 1309,
      "Ġmaior": 1310,
      "ale": 1311,
      "Ġref": 1312,
      "Ġescol": 1313,
      "Ġvai": 1314,
      "ually": 1315,
      "Ġcada": 1316,
      "lect": 1317,
      "ute": 1318,
      "elf": 1319,
      "iÃ£o": 1320,
      "ress": 1321,
      "ient": 1322,
      "Ġty": 1323,
      "af": 1324,
      "Ġide": 1325,
      "ĠBrasil": 1326,
      "ĠhÃ¡": 1327,
      "istas": 1328,
      "Ġeffect": 1329,
      "Ġsm": 1330,
      "ĠÃłs": 1331,
      "Ġdesen": 1332,
      "Ġdifferent": 1333,
      "ivid": 1334,
      "Ġrequ": 1335,
      "Ġpodem": 1336,
      "ution": 1337,
      "Ġspec": 1338,
      "acional": 1339,
      "Ġdata": 1340,
      "ps": 1341,
      "Ġprev": 1342,
      "iva": 1343,
      "ĠLe": 1344,
      ".âĢĿ": 1345,
      "Ġlim": 1346,
      "acter": 1347,
      "cent": 1348,
      "ulo": 1349,
      "Ġprot": 1350,
      "Ġdisp": 1351,
      "itas": 1352,
      "ĠestÃ£o": 1353,
      "iais": 1354,
      "Ġworld": 1355,
      "Ġhuman": 1356,
      "go": 1357,
      "Ġrealiz": 1358,
      "10": 1359,
      "Ġincre": 1360,
      "ism": 1361,
      "ists": 1362,
      "Ġbus": 1363,
      "ĠWe": 1364,
      "ĠIs": 1365,
      "ĠEx": 1366,
      "Ġdifer": 1367,
      "ga": 1368,
      "Ġsite": 1369,
      "Ġpublic": 1370,
      "cesso": 1371,
      "Ġprom": 1372,
      "Ġcomple": 1373,
      "Ã´n": 1374,
      "Ġfound": 1375,
      "ds": 1376,
      "ĠAmer": 1377,
      "ited": 1378,
      "orr": 1379,
      "Ġes": 1380,
      "air": 1381,
      "Ã³ria": 1382,
      "Ġway": 1383,
      "Ġparticip": 1384,
      "Ġbecause": 1385,
      "ĠNo": 1386,
      "Ã©s": 1387,
      "Ġbel": 1388,
      "Ġonde": 1389,
      "Ġoutros": 1390,
      "Ġapenas": 1391,
      "Ġcount": 1392,
      "ulher": 1393,
      "ĠFor": 1394,
      "este": 1395,
      "Ġleg": 1396,
      "enh": 1397,
      "ecer": 1398,
      "land": 1399,
      "Ġquer": 1400,
      "Ġdisc": 1401,
      "Ġeven": 1402,
      "Ġecon": 1403,
      "000": 1404,
      "ĠPa": 1405,
      "Ġla": 1406,
      "ua": 1407,
      "Ġsent": 1408,
      "Ġconhec": 1409,
      "eio": 1410,
      "Ġutiliz": 1411,
      "gar": 1412,
      "Ġke": 1413,
      "ket": 1414,
      "ices": 1415,
      "ĠQu": 1416,
      "Ġbr": 1417,
      "vir": 1418,
      "ele": 1419,
      "Ġvery": 1420,
      "ique": 1421,
      "ĠOs": 1422,
      "Ġafter": 1423,
      "Ġeduc": 1424,
      "pois": 1425,
      "Ġoper": 1426,
      "plic": 1427,
      "Ġmot": 1428,
      "ltim": 1429,
      "ibil": 1430,
      "Ġprincip": 1431,
      "ict": 1432,
      "ody": 1433,
      "Ġcal": 1434,
      "ples": 1435,
      "Ġtech": 1436,
      "Ġsempre": 1437,
      "led": 1438,
      "Ġmov": 1439,
      "Ġmater": 1440,
      "ement": 1441,
      "ican": 1442,
      "dade": 1443,
      "Ãªm": 1444,
      "Ġear": 1445,
      "Ġfinal": 1446,
      "ines": 1447,
      "Ġacc": 1448,
      "Se": 1449,
      "Ġsee": 1450,
      "Ġthen": 1451,
      "ivos": 1452,
      "Ġfac": 1453,
      "uss": 1454,
      "Ġlo": 1455,
      "ically": 1456,
      "Ġadv": 1457,
      "Ġmom": 1458,
      "ĠCl": 1459,
      "be": 1460,
      "imes": 1461,
      "Ġsocial": 1462,
      "Ġrem": 1463,
      "cept": 1464,
      "Ġredu": 1465,
      "ĠPar": 1466,
      "Ġtrabalho": 1467,
      "Ġconse": 1468,
      "Ġgar": 1469,
      "Ġdiz": 1470,
      "Ġmundo": 1471,
      "Ġdeix": 1472,
      "Ġthose": 1473,
      "Ġident": 1474,
      "mit": 1475,
      "Ġdesign": 1476,
      "Ġevery": 1477,
      "Ġajud": 1478,
      "ima": 1479,
      "Ġfact": 1480,
      "Ġ0": 1481,
      "ĠserÃ¡": 1482,
      "ĠPort": 1483,
      "Ġimportant": 1484,
      "Ãºbl": 1485,
      "iel": 1486,
      "Ġtorn": 1487,
      "enta": 1488,
      "ĠAss": 1489,
      "Ġapres": 1490,
      "Ġenerg": 1491,
      "unt": 1492,
      "Ġhom": 1493,
      "isa": 1494,
      "Ġofer": 1495,
      "Ġcall": 1496,
      "Ġparte": 1497,
      "Ġfin": 1498,
      "ages": 1499,
      "oun": 1500,
      "ES": 1501,
      "Ġmat": 1502,
      "ĠAt": 1503,
      "Ġsuper": 1504,
      "Ġ15": 1505,
      "ward": 1506,
      "Ġgrande": 1507,
      "abor": 1508,
      "Ġservi": 1509,
      "Ġbene": 1510,
      "agens": 1511,
      "ruct": 1512,
      "Ġforam": 1513,
      "rom": 1514,
      "Ġfood": 1515,
      "Ġbeing": 1516,
      "mos": 1517,
      "ĠAnd": 1518,
      "Ġsaid": 1519,
      "Ġcontra": 1520,
      "aria": 1521,
      "br": 1522,
      "ionais": 1523,
      "ness": 1524,
      "Ġped": 1525,
      "ĠÃī": 1526,
      "Ġela": 1527,
      "Ġcult": 1528,
      "Ġpou": 1529,
      "ÃŃd": 1530,
      "Ġlit": 1531,
      "RA": 1532,
      "Ġeach": 1533,
      "Ġclass": 1534,
      "iaÃ§Ã£o": 1535,
      "Ġmade": 1536,
      "Ġera": 1537,
      "imentos": 1538,
      "ier": 1539,
      "Ġpot": 1540,
      "Ġinformation": 1541,
      "Ġsk": 1542,
      "ense": 1543,
      "ts": 1544,
      "ork": 1545,
      "iÃ§Ãµes": 1546,
      "Ġseja": 1547,
      "Ġrespons": 1548,
      "ĠSexo": 1549,
      "Ġvia": 1550,
      "ues": 1551,
      "Ġread": 1552,
      "Ġtudo": 1553,
      "Ġstudents": 1554,
      "ismo": 1555,
      "ĠAd": 1556,
      "Ġmuch": 1557,
      "ÃŃl": 1558,
      "Ġlead": 1559,
      "Ġexist": 1560,
      "Ã¡ria": 1561,
      "tle": 1562,
      "Ġanim": 1563,
      "ection": 1564,
      "ven": 1565,
      "Ġlevel": 1566,
      "Ġchildren": 1567,
      "gn": 1568,
      "Ġcomb": 1569,
      "Ġdu": 1570,
      "Ġfind": 1571,
      "ĠGo": 1572,
      "Ġown": 1573,
      "Ġtip": 1574,
      "Ġlife": 1575,
      "Ã§as": 1576,
      "ĠCar": 1577,
      "ail": 1578,
      "ĠThey": 1579,
      "get": 1580,
      "Ġoff": 1581,
      "cios": 1582,
      "Ġback": 1583,
      "Al": 1584,
      "ĠZ": 1585,
      "Ġtre": 1586,
      "Ġschool": 1587,
      "Ġqualquer": 1588,
      "Ġesse": 1589,
      "âĢĿ.": 1590,
      "enda": 1591,
      "ger": 1592,
      "iras": 1593,
      "ning": 1594,
      "ĠIf": 1595,
      "Ġban": 1596,
      "Ġdoes": 1597,
      "ize": 1598,
      "ĠPara": 1599,
      "Ãªncias": 1600,
      "Ġend": 1601,
      "amentos": 1602,
      "ientes": 1603,
      "ena": 1604,
      "irm": 1605,
      "Ãºde": 1606,
      "ogra": 1607,
      "Ġstudy": 1608,
      "Ġduring": 1609,
      "oje": 1610,
      "ather": 1611,
      "Ġfollow": 1612,
      "jo": 1613,
      "Ġrepres": 1614,
      "Ġtodo": 1615,
      "ĠâĢĺ": 1616,
      "hip": 1617,
      "viron": 1618,
      "Ġaqui": 1619,
      "Ġright": 1620,
      "cient": 1621,
      "Ġfre": 1622,
      "ĠUnivers": 1623,
      "orte": 1624,
      "Ġassim": 1625,
      "idente": 1626,
      "Ġlev": 1627,
      "Ġdown": 1628,
      "ites": 1629,
      "pa": 1630,
      "Ġdiv": 1631,
      "Ġonline": 1632,
      "ĠPl": 1633,
      "car": 1634,
      "ĠSÃ£o": 1635,
      "Ġfund": 1636,
      "ock": 1637,
      "Ġgood": 1638,
      "Ġsame": 1639,
      "Ġgra": 1640,
      "Ġmus": 1641,
      "Ġbar": 1642,
      "ential": 1643,
      "read": 1644,
      "Ġcontrol": 1645,
      "ĠJo": 1646,
      "stand": 1647,
      "ĠInd": 1648,
      "Ġamb": 1649,
      "Ġtrad": 1650,
      "fr": 1651,
      "Ġvir": 1652,
      "Ġporque": 1653,
      "ĠpaÃŃs": 1654,
      "hing": 1655,
      "Ġinte": 1656,
      "Ġproblem": 1657,
      "Ġprojet": 1658,
      "iew": 1659,
      "Ġdeter": 1660,
      "Ġapro": 1661,
      "Ġusing": 1662,
      "Ġdivers": 1663,
      "Ġdeve": 1664,
      "oci": 1665,
      "âĢĶ": 1666,
      "Ġeng": 1667,
      "els": 1668,
      "Ġquem": 1669,
      "Ġempresa": 1670,
      "Ġsin": 1671,
      "Ġpopul": 1672,
      "Ġtoo": 1673,
      "bo": 1674,
      "ĠHow": 1675,
      "Ġconsum": 1676,
      "Ġadd": 1677,
      "ativa": 1678,
      "ĠMas": 1679,
      "Ġ12": 1680,
      "ĠPr": 1681,
      "cil": 1682,
      "ty": 1683,
      "Ġtreat": 1684,
      "Ġorig": 1685,
      "Ġdois": 1686,
      "Ġanal": 1687,
      "arÃ¡": 1688,
      "ww": 1689,
      "Ġmy": 1690,
      "ER": 1691,
      "Ã¡l": 1692,
      "Ġtal": 1693,
      "formaÃ§Ãµes": 1694,
      "Ġdise": 1695,
      "ui": 1696,
      "Ġactiv": 1697,
      "Ġstr": 1698,
      "Ġsitu": 1699,
      "Os": 1700,
      "Ġessa": 1701,
      "Ġboth": 1702,
      "inas": 1703,
      "feira": 1704,
      "Ġsmall": 1705,
      "Ġsistem": 1706,
      "Ġoften": 1707,
      "Ġpes": 1708,
      "Ã³r": 1709,
      "Ġhor": 1710,
      "Ġeconom": 1711,
      "gg": 1712,
      "Ã©c": 1713,
      "Ġger": 1714,
      "ÃŃveis": 1715,
      "Ġmaterial": 1716,
      "ici": 1717,
      "rea": 1718,
      "Ġrev": 1719,
      "lood": 1720,
      "Ġbas": 1721,
      "Ġpap": 1722,
      "Ġdias": 1723,
      "Ġbefore": 1724,
      "Ġinfl": 1725,
      "ized": 1726,
      "Ġdr": 1727,
      "ember": 1728,
      "Ġmerc": 1729,
      "Ġapp": 1730,
      "ĠÃºltim": 1731,
      "ands": 1732,
      "Ġten": 1733,
      "Ã©r": 1734,
      "cos": 1735,
      "Ġeles": 1736,
      "AS": 1737,
      "Ġbody": 1738,
      "Ġrest": 1739,
      "Ġprofiss": 1740,
      "Ġdom": 1741,
      "ĠvÃŃ": 1742,
      "Ã©ri": 1743,
      "vironment": 1744,
      "urs": 1745,
      "Ġpost": 1746,
      "ĠMan": 1747,
      "kes": 1748,
      "Ġappro": 1749,
      "ature": 1750,
      "Ġtake": 1751,
      "Ġet": 1752,
      "Ġens": 1753,
      "entro": 1754,
      "ently": 1755,
      "gress": 1756,
      "Ġgrow": 1757,
      "Ġwhile": 1758,
      "imin": 1759,
      "omen": 1760,
      "Ġstart": 1761,
      "pri": 1762,
      "Ġexp": 1763,
      "ateg": 1764,
      "ĠâĢĶ": 1765,
      "Ġpal": 1766,
      "cum": 1767,
      "itor": 1768,
      "Ġdig": 1769,
      "Ġcasa": 1770,
      "Ġindivid": 1771,
      "Ġpag": 1772,
      "Ã©t": 1773,
      "Ġless": 1774,
      "bs": 1775,
      "rain": 1776,
      "Ġaround": 1777,
      "Ġtotal": 1778,
      "rist": 1779,
      "ugu": 1780,
      "ĠAm": 1781,
      "Ġgroup": 1782,
      "Ġplant": 1783,
      "arge": 1784,
      "angu": 1785,
      "Ã¢ncia": 1786,
      "Ġnumber": 1787,
      "Ġcab": 1788,
      "Ġshe": 1789,
      "Ã¡rias": 1790,
      "Ġpower": 1791,
      "Ġday": 1792,
      "ÃŃcio": 1793,
      "Ġmain": 1794,
      "cel": 1795,
      "ner": 1796,
      "ula": 1797,
      "Ġred": 1798,
      "iety": 1799,
      "Ġdurante": 1800,
      "app": 1801,
      "Ġconta": 1802,
      "ves": 1803,
      "ĠPor": 1804,
      "OS": 1805,
      "Ġbro": 1806,
      "ention": 1807,
      "heiro": 1808,
      "Ġnatural": 1809,
      "Ġagain": 1810,
      "Ġprovid": 1811,
      "ency": 1812,
      "Ġesta": 1813,
      "Ġcommon": 1814,
      "Ġcir": 1815,
      "ĠYou": 1816,
      "Ġoutras": 1817,
      "Ġmud": 1818,
      "pes": 1819,
      "Ġtodas": 1820,
      "12": 1821,
      "Ġnow": 1822,
      "Ġcell": 1823,
      "ware": 1824,
      "Ġalguns": 1825,
      "ĠAc": 1826,
      "ĠinformaÃ§Ãµes": 1827,
      "Ġ202": 1828,
      "enci": 1829,
      "Ġfut": 1830,
      "Ġsever": 1831,
      "Ġcaso": 1832,
      "ols": 1833,
      "ĠX": 1834,
      "Ġshow": 1835,
      "EN": 1836,
      "Ġz": 1837,
      "ton": 1838,
      "ĠCol": 1839,
      "portun": 1840,
      "Ġaplic": 1841,
      "Ġdel": 1842,
      "ares": 1843,
      "ano": 1844,
      "Ġmeio": 1845,
      "Ã³g": 1846,
      "Ġpois": 1847,
      "Ġrefer": 1848,
      "enÃ§a": 1849,
      "anÃ§as": 1850,
      "Ġdefin": 1851,
      "ĠTr": 1852,
      "Ġprofess": 1853,
      "ets": 1854,
      "Ġsupport": 1855,
      "Ġreport": 1856,
      "essa": 1857,
      "Ġgre": 1858,
      "Ġdepois": 1859,
      "Ġsignific": 1860,
      "Ġconsegu": 1861,
      "ende": 1862,
      "Ġdon": 1863,
      "ouse": 1864,
      "Est": 1865,
      "ordo": 1866,
      "Ġconte": 1867,
      "Qu": 1868,
      "Ġhav": 1869,
      "Ġcle": 1870,
      "Ġnovo": 1871,
      "ĠmÃ©d": 1872,
      "Ġcidade": 1873,
      "This": 1874,
      "Ġcond": 1875,
      "ences": 1876,
      "Ġmust": 1877,
      "ĠEuro": 1878,
      "Ġjogo": 1879,
      "Ġacont": 1880,
      "Ġprote": 1881,
      "Ġcost": 1882,
      "ĠInst": 1883,
      "way": 1884,
      "itut": 1885,
      "Ġmulher": 1886,
      "Ġprimeiro": 1887,
      "Ġ199": 1888,
      "Ġelect": 1889,
      "Ġexem": 1890,
      "Ġ30": 1891,
      "Em": 1892,
      "atic": 1893,
      "Ġcompan": 1894,
      "Ġ.": 1895,
      "Ġbase": 1896,
      "Ġbenef": 1897,
      "Ġthree": 1898,
      "Ġpoint": 1899,
      "ogo": 1900,
      "Ġexample": 1901,
      "Ġcare": 1902,
      "Ġunderstand": 1903,
      "Ġvers": 1904,
      "Ġhear": 1905,
      "Ġindic": 1906,
      "ases": 1907,
      "Ġfot": 1908,
      "ries": 1909,
      "ĠalÃ©m": 1910,
      "ativo": 1911,
      "minist": 1912,
      "Ġindividual": 1913,
      "ull": 1914,
      "izar": 1915,
      "Ġcontinu": 1916,
      "Ġdar": 1917,
      "ĠNÃ£o": 1918,
      "Ġestab": 1919,
      "Ġobs": 1920,
      "Ġincluding": 1921,
      "Ġbom": 1922,
      "Ġ[": 1923,
      "unto": 1924,
      "Ġnosso": 1925,
      "ormal": 1926,
      "ator": 1927,
      "Ġdispon": 1928,
      "gua": 1929,
      "raÃ§Ã£o": 1930,
      "ters": 1931,
      "ids": 1932,
      "ium": 1933,
      "Ġsendo": 1934,
      ",âĢĿ": 1935,
      "Ãºmer": 1936,
      "AR": 1937,
      "Ġnossa": 1938,
      "IS": 1939,
      "Ġallow": 1940,
      "Ġgreat": 1941,
      "Ġcham": 1942,
      "osp": 1943,
      "Ġdin": 1944,
      "embro": 1945,
      "No": 1946,
      "rop": 1947,
      "uÃ§Ã£o": 1948,
      "Ġcondit": 1949,
      "ĠBut": 1950,
      "Ġ&": 1951,
      "dust": 1952,
      "Ġfoc": 1953,
      "Ġpract": 1954,
      "Ġdesenvolv": 1955,
      "Ġtec": 1956,
      "Ġgan": 1957,
      "ĠOn": 1958,
      "Ġmenos": 1959,
      "Ġantes": 1960,
      "ĠRes": 1961,
      "Ġbre": 1962,
      "clus": 1963,
      ".\"": 1964,
      "Ġhoje": 1965,
      "enÃ§Ã£o": 1966,
      "oria": 1967,
      "rem": 1968,
      "Ġobjet": 1969,
      "Ġcomput": 1970,
      "Ġeas": 1971,
      "ury": 1972,
      "Ġdecis": 1973,
      "11": 1974,
      "Ġdid": 1975,
      "ĠpÃºbl": 1976,
      "osta": 1977,
      "uras": 1978,
      "Ġparticular": 1979,
      "Ġhim": 1980,
      "iod": 1981,
      "ĠUS": 1982,
      "Ġplay": 1983,
      "Ġbuild": 1984,
      "Ġcu": 1985,
      "ĠprÃ³xim": 1986,
      "Ġrequire": 1987,
      "ote": 1988,
      "Ġfuncion": 1989,
      "onte": 1990,
      ".,": 1991,
      "Ġpress": 1992,
      "Ġimportante": 1993,
      "Ġsl": 1994,
      "Ġgiv": 1995,
      "Ġproduct": 1996,
      "Ġ16": 1997,
      "Ġproject": 1998,
      "oms": 1999,
      "Ġ17": 2000,
      "avor": 2001,
      "Ġagora": 2002,
      "ll": 2003,
      "Ġrecom": 2004,
      "leg": 2005,
      "Ġminha": 2006,
      "ption": 2007,
      "Ġcust": 2008,
      "ĠEng": 2009,
      "ola": 2010,
      "ĠNew": 2011,
      "ved": 2012,
      "30": 2013,
      "oca": 2014,
      "igos": 2015,
      "Ġfer": 2016,
      "De": 2017,
      "Ġsens": 2018,
      "50": 2019,
      "Ġconstru": 2020,
      "ĠTo": 2021,
      "eng": 2022,
      "Ã³rio": 2023,
      "Ġaum": 2024,
      "ĠMa": 2025,
      "Ġpain": 2026,
      "ĠThere": 2027,
      "Ġrepresent": 2028,
      "Ġmult": 2029,
      "Ġlug": 2030,
      "Ġdisse": 2031,
      "Ġknown": 2032,
      "Ġmercado": 2033,
      "Ġwrit": 2034,
      "Ġtom": 2035,
      "iness": 2036,
      "Ġsex": 2037,
      "Ġatrav": 2038,
      "Ġdirect": 2039,
      "Ġcour": 2040,
      "Ġvalor": 2041,
      "Ġimpro": 2042,
      "ĠGu": 2043,
      "ted": 2044,
      "ĠSc": 2045,
      "osa": 2046,
      "ĠAp": 2047,
      "Ġcalled": 2048,
      "ux": 2049,
      "Ġmomento": 2050,
      "eter": 2051,
      "Ġmeu": 2052,
      "Ġstill": 2053,
      "Ġsomet": 2054,
      "Para": 2055,
      "Ġdados": 2056,
      "Ġrep": 2057,
      "Ġprincipal": 2058,
      "ats": 2059,
      "ately": 2060,
      "ĠThese": 2061,
      "ended": 2062,
      "ĠCan": 2063,
      "Ġestar": 2064,
      "ood": 2065,
      "Ġenvironment": 2066,
      "ility": 2067,
      "atos": 2068,
      "Ġdisso": 2069,
      "Ġativ": 2070,
      "Ġol": 2071,
      "ology": 2072,
      "Ġbras": 2073,
      "iqu": 2074,
      "Ġcommun": 2075,
      "ederal": 2076,
      "ances": 2077,
      "Ġsegur": 2078,
      "ĠPaulo": 2079,
      "the": 2080,
      "ĠpolÃŃt": 2081,
      "Ġcontrib": 2082,
      "Ġoutro": 2083,
      "ÃŃst": 2084,
      "ĠcomeÃ§": 2085,
      "Ã©cn": 2086,
      "Ġvi": 2087,
      "ON": 2088,
      "ude": 2089,
      "ĠCam": 2090,
      "ources": 2091,
      "ĠpossÃŃvel": 2092,
      "ĠPol": 2093,
      "Ġprocesso": 2094,
      "ĠIntern": 2095,
      "isc": 2096,
      "outh": 2097,
      "ĠapÃ³s": 2098,
      "obal": 2099,
      "Ġpens": 2100,
      "Ġgru": 2101,
      "cience": 2102,
      "Ġmight": 2103,
      "Ġmor": 2104,
      "Ġsistema": 2105,
      "rut": 2106,
      "elho": 2107,
      "Ġlight": 2108,
      "ero": 2109,
      "icial": 2110,
      "Ġapresent": 2111,
      "ĠPre": 2112,
      "Ġair": 2113,
      "Ġprimeira": 2114,
      "Ġfew": 2115,
      "Ġiss": 2116,
      "Ġ11": 2117,
      "Ġorganiz": 2118,
      "IN": 2119,
      "Ġwant": 2120,
      "Ġchang": 2121,
      "Ġacordo": 2122,
      "ĠBe": 2123,
      "--": 2124,
      "ÃŃp": 2125,
      "ĠAmerican": 2126,
      "Ġtechnolog": 2127,
      "li": 2128,
      "Ġdi": 2129,
      "Ã¡tica": 2130,
      "ĠCont": 2131,
      "ording": 2132,
      "hod": 2133,
      "Ġlib": 2134,
      "ĠGr": 2135,
      "Ġbest": 2136,
      "ĠOr": 2137,
      "ars": 2138,
      "reg": 2139,
      "Ġatual": 2140,
      "ĠCo": 2141,
      "ash": 2142,
      "Ġchange": 2143,
      "Ġprodutos": 2144,
      "ones": 2145,
      "anda": 2146,
      "ying": 2147,
      "ode": 2148,
      "Ġdisease": 2149,
      "\",": 2150,
      "ĠIm": 2151,
      "hÃµes": 2152,
      "iedade": 2153,
      "Ġbeh": 2154,
      "thers": 2155,
      "Ġdocum": 2156,
      "Ġdesde": 2157,
      "Ãī": 2158,
      "âĢĵ": 2159,
      "It": 2160,
      "Ġenergy": 2161,
      "Ġmant": 2162,
      "Ãºs": 2163,
      "Ġtrat": 2164,
      "Ġplace": 2165,
      "ason": 2166,
      "lex": 2167,
      "Ġblood": 2168,
      "Ġperform": 2169,
      "Ġhome": 2170,
      "Ġwithout": 2171,
      "ĠsaÃºde": 2172,
      "OR": 2173,
      "Ġphys": 2174,
      "ĠatravÃ©s": 2175,
      "Ġach": 2176,
      "Ġestava": 2177,
      "Ġsom": 2178,
      "ÃŃlia": 2179,
      "Ã¡veis": 2180,
      "acion": 2181,
      "Ġpouco": 2182,
      "Ġqualidade": 2183,
      "Ġeff": 2184,
      "Ġsubst": 2185,
      "ham": 2186,
      "//": 2187,
      "Ġvezes": 2188,
      "Ġstate": 2189,
      "Ġemb": 2190,
      "aixo": 2191,
      "Ġpartir": 2192,
      "Ġsuc": 2193,
      "ined": 2194,
      "Ġinde": 2195,
      "uring": 2196,
      "Ġalgumas": 2197,
      "Ġ14": 2198,
      "ĠtrÃªs": 2199,
      "Ġmarket": 2200,
      "hor": 2201,
      "ĠCas": 2202,
      "aro": 2203,
      "Ġlook": 2204,
      "Ġdesta": 2205,
      "emente": 2206,
      "Ġrisk": 2207,
      "Ġ|": 2208,
      "Ġgeneral": 2209,
      "Ġduas": 2210,
      "thing": 2211,
      "Ġapar": 2212,
      "edi": 2213,
      "Ġimm": 2214,
      "Ġbrasile": 2215,
      "ĠFl": 2216,
      "quanto": 2217,
      "ames": 2218,
      "Ġlarge": 2219,
      "Ġprepar": 2220,
      "unda": 2221,
      "Ġtro": 2222,
      "Ġinclude": 2223,
      "uz": 2224,
      "Ġcontain": 2225,
      "ane": 2226,
      "Ġpriv": 2227,
      "ract": 2228,
      "Ġarea": 2229,
      "Ġwithin": 2230,
      "AN": 2231,
      "ĠNa": 2232,
      "miss": 2233,
      "da": 2234,
      "Ġtemper": 2235,
      "Ġassoci": 2236,
      "ĠBl": 2237,
      "cle": 2238,
      "illion": 2239,
      "ĠtÃªm": 2240,
      "rag": 2241,
      "ĠAf": 2242,
      "onst": 2243,
      "ĠMin": 2244,
      "ck": 2245,
      "cas": 2246,
      "ĠSp": 2247,
      "vail": 2248,
      "Ġagr": 2249,
      "ĠEle": 2250,
      "jor": 2251,
      "Ġtop": 2252,
      "Ġassist": 2253,
      "ĠCent": 2254,
      "Ġdevelopment": 2255,
      "Ġstand": 2256,
      "ots": 2257,
      "itive": 2258,
      "18": 2259,
      "Ġpresent": 2260,
      "Ã³ri": 2261,
      "iment": 2262,
      "Ġespec": 2263,
      "ove": 2264,
      "Ġcompet": 2265,
      "Ġnome": 2266,
      "Ġmal": 2267,
      "Ġrele": 2268,
      "ĠSa": 2269,
      "Ġpelos": 2270,
      "://": 2271,
      "wh": 2272,
      "vis": 2273,
      "Ã¡g": 2274,
      "ĠNov": 2275,
      "ways": 2276,
      "Ġcurr": 2277,
      "iga": 2278,
      "Ġ100": 2279,
      "ilo": 2280,
      "Ġgarant": 2281,
      "Ġchar": 2282,
      "Ġexemplo": 2283,
      "'t": 2284,
      "Ġpercent": 2285,
      "Ġinterest": 2286,
      "Ġregist": 2287,
      "Ġindust": 2288,
      "Ġ'": 2289,
      "Ġcomplet": 2290,
      "Ġfavor": 2291,
      "ills": 2292,
      "ken": 2293,
      "culo": 2294,
      "ID": 2295,
      "ĠnÃºmer": 2296,
      "aÃ§o": 2297,
      "ilar": 2298,
      "Ġmeas": 2299,
      "Ġempresas": 2300,
      "ĠUniversity": 2301,
      "Ġpersonal": 2302,
      "Ġwomen": 2303,
      "Ġverdade": 2304,
      "of": 2305,
      "Ġpur": 2306,
      "ield": 2307,
      "gin": 2308,
      "asse": 2309,
      "Ġproper": 2310,
      "Ġspe": 2311,
      "Ġfar": 2312,
      "ĠAg": 2313,
      "ils": 2314,
      "Es": 2315,
      "amin": 2316,
      "Ġfrequ": 2317,
      "icle": 2318,
      "Ã³d": 2319,
      "isas": 2320,
      "anc": 2321,
      "abilidade": 2322,
      "na": 2323,
      "Ġanother": 2324,
      "Ġcorre": 2325,
      "Ġdesp": 2326,
      "Ġcause": 2327,
      "Ġhand": 2328,
      "Ġpequ": 2329,
      "Ġmedic": 2330,
      "Ġimpact": 2331,
      "orth": 2332,
      "encial": 2333,
      "Ġacr": 2334,
      "Ġturn": 2335,
      "IC": 2336,
      "ape": 2337,
      "plement": 2338,
      "Ã¢m": 2339,
      "ĠSant": 2340,
      "Ġnova": 2341,
      "Ġur": 2342,
      "Ġcompar": 2343,
      "ĠserviÃ§os": 2344,
      "Ġorder": 2345,
      "Ġbi": 2346,
      "Ġaddit": 2347,
      "ĠtÃ©cn": 2348,
      "Ġkeep": 2349,
      "ĠDE": 2350,
      "ĠHowever": 2351,
      "Ġbetter": 2352,
      "Ġlow": 2353,
      "Ġprovide": 2354,
      "Ġbecome": 2355,
      "ĠSer": 2356,
      "ients": 2357,
      "ĠCons": 2358,
      "ought": 2359,
      "Ġjogos": 2360,
      "Ġtipo": 2361,
      "Ġteach": 2362,
      "ĠSu": 2363,
      "rada": 2364,
      "Ġhy": 2365,
      "Ġcrit": 2366,
      "ards": 2367,
      "Ġmodel": 2368,
      "Ġtoda": 2369,
      "Ġ13": 2370,
      "hn": 2371,
      "osto": 2372,
      "Ġlearning": 2373,
      "Ġprojeto": 2374,
      "Ġson": 2375,
      "Ġcontr": 2376,
      "Ġmethod": 2377,
      "Ġold": 2378,
      "adora": 2379,
      "Ġminut": 2380,
      "ĠentÃ£o": 2381,
      "Ġed": 2382,
      "Ġcapac": 2383,
      "ource": 2384,
      "izado": 2385,
      "AL": 2386,
      "ĠMed": 2387,
      "Ġlet": 2388,
      "etic": 2389,
      "Ġmass": 2390,
      "Ġ,": 2391,
      "feito": 2392,
      "Ġdetermin": 2393,
      "Ġbelie": 2394,
      "Ġfamily": 2395,
      "ified": 2396,
      "ĠvÃŃde": 2397,
      "Ã´m": 2398,
      "Ġuso": 2399,
      "Ġlugar": 2400,
      "eck": 2401,
      "ĠtÃ£o": 2402,
      "Ġnem": 2403,
      "Ġrad": 2404,
      "Ġesper": 2405,
      "ends": 2406,
      "Ġpesqu": 2407,
      "ĠRio": 2408,
      "Ġlist": 2409,
      "Ġcho": 2410,
      "lished": 2411,
      "Ġlast": 2412,
      "Ġlarg": 2413,
      "ling": 2414,
      "Ġtri": 2415,
      "Ġmeans": 2416,
      "ĠCor": 2417,
      "Ġearly": 2418,
      "row": 2419,
      "Ġnormal": 2420,
      "ining": 2421,
      "ĠÃ¡rea": 2422,
      "Ġavail": 2423,
      "Ġacab": 2424,
      "ng": 2425,
      "Ġobserv": 2426,
      "ecut": 2427,
      "Ġestud": 2428,
      "Ġpopular": 2429,
      "rodu": 2430,
      "__": 2431,
      "odo": 2432,
      "ĠEnt": 2433,
      "ĠÃ³": 2434,
      "Ġhere": 2435,
      "work": 2436,
      "Ġdentro": 2437,
      "Ġdiret": 2438,
      "gen": 2439,
      "ye": 2440,
      "What": 2441,
      "Ġdiscuss": 2442,
      "ĠEurope": 2443,
      "Ġinflu": 2444,
      "Ġobject": 2445,
      "Ġlado": 2446,
      "Ġmemb": 2447,
      "Ġcoloc": 2448,
      "Ġsegundo": 2449,
      "Ġ50": 2450,
      "ĠhistÃ³ria": 2451,
      "Ġable": 2452,
      "Ġsecond": 2453,
      "Ġquant": 2454,
      "ĠSo": 2455,
      "ped": 2456,
      "ĠSoc": 2457,
      "uma": 2458,
      "rado": 2459,
      "Ġcheg": 2460,
      "Ġtele": 2461,
      "Ġfim": 2462,
      "Ġfacil": 2463,
      "Re": 2464,
      "Ġintegr": 2465,
      "Ã£os": 2466,
      "ether": 2467,
      "onto": 2468,
      "ona": 2469,
      "Ġmajor": 2470,
      "ik": 2471,
      "Ġexpress": 2472,
      "15": 2473,
      "Ġland": 2474,
      "Ġsimples": 2475,
      "Ġpossible": 2476,
      "Ġmuitos": 2477,
      "Ġnear": 2478,
      "hes": 2479,
      "Ġput": 2480,
      "ingu": 2481,
      "Ġopt": 2482,
      "Ġsaber": 2483,
      "Ġunivers": 2484,
      "Ġbat": 2485,
      "ories": 2486,
      "Ġfat": 2487,
      "Ġhistory": 2488,
      "ĠseguranÃ§a": 2489,
      "ube": 2490,
      "Ġabs": 2491,
      "ival": 2492,
      "Ġdecl": 2493,
      "Ġthings": 2494,
      "Ġfree": 2495,
      "val": 2496,
      "Ġhapp": 2497,
      "Ġhot": 2498,
      "Ġdeste": 2499,
      "less": 2500,
      "Ġder": 2501,
      "Ġprecisa": 2502,
      "Ġseveral": 2503,
      "Ġgener": 2504,
      "ĠBo": 2505,
      "ama": 2506,
      "ration": 2507,
      "Ġvolt": 2508,
      "Ġopen": 2509,
      "Ġmuitas": 2510,
      "ĠUnited": 2511,
      "Ã©rio": 2512,
      "Ġoccur": 2513,
      "zo": 2514,
      "ĠGer": 2515,
      "ograph": 2516,
      "ontos": 2517,
      "ĠDes": 2518,
      "Ġacom": 2519,
      "Ġaccess": 2520,
      "AD": 2521,
      "Por": 2522,
      "Ġcin": 2523,
      "Ġi": 2524,
      "Ã©g": 2525,
      "ĠFran": 2526,
      "ĠSec": 2527,
      "Ġsays": 2528,
      "ĠÃºn": 2529,
      "Ġscient": 2530,
      "ÃŃcia": 2531,
      "Ġexpos": 2532,
      "une": 2533,
      "ĠmÃ¡": 2534,
      "Ġfeel": 2535,
      "Ġtreatment": 2536,
      "Ġprop": 2537,
      "Ġapr": 2538,
      "Ġdet": 2539,
      "Ġdinheiro": 2540,
      "ek": 2541,
      "ĠlanÃ§": 2542,
      "Ġperiod": 2543,
      "\".": 2544,
      "An": 2545,
      "Ġforn": 2546,
      "Ġautor": 2547,
      "ogn": 2548,
      "use": 2549,
      "Ġnon": 2550,
      "Ġstat": 2551,
      "Ġmean": 2552,
      "ĠWhen": 2553,
      "ĠBar": 2554,
      "Ġtimes": 2555,
      "Ġgovernment": 2556,
      "17": 2557,
      "ĠLa": 2558,
      "Ġtext": 2559,
      "Ġdiferentes": 2560,
      "ibilidade": 2561,
      "Ġpessoa": 2562,
      "13": 2563,
      "ological": 2564,
      "Ġcorr": 2565,
      "panh": 2566,
      "We": 2567,
      "ply": 2568,
      "Ġaffect": 2569,
      "Ġdese": 2570,
      "ĠPh": 2571,
      "Ġagainst": 2572,
      "uais": 2573,
      "Con": 2574,
      "Ġthink": 2575,
      "Ġmodern": 2576,
      "ĠDo": 2577,
      "rum": 2578,
      "ĠnÃ³s": 2579,
      "pend": 2580,
      "Ġnut": 2581,
      "Ġquar": 2582,
      "ostas": 2583,
      "oto": 2584,
      "Ġinclu": 2585,
      "Ġplac": 2586,
      "AT": 2587,
      "Ġquanto": 2588,
      "ability": 2589,
      "esa": 2590,
      "Ġsay": 2591,
      "Ġfamil": 2592,
      "!!": 2593,
      "face": 2594,
      "ume": 2595,
      "Ġnature": 2596,
      "Ġ25": 2597,
      "Ġrema": 2598,
      "iores": 2599,
      "imate": 2600,
      "ifica": 2601,
      "rou": 2602,
      "Ġconn": 2603,
      "Ġconc": 2604,
      "Ġ/": 2605,
      "atro": 2606,
      "rel": 2607,
      "Ġapo": 2608,
      "gem": 2609,
      "Ġsoft": 2610,
      "Ġprotect": 2611,
      "Ġhard": 2612,
      "ides": 2613,
      "Ġglobal": 2614,
      "ĠpÃºblico": 2615,
      "Ġspecies": 2616,
      "Ġappear": 2617,
      "Ġca": 2618,
      "Ġ24": 2619,
      "ĠrelaÃ§Ã£o": 2620,
      "Ġvit": 2621,
      "Ġpac": 2622,
      "Ġtax": 2623,
      "fet": 2624,
      "Ġencontrar": 2625,
      "adr": 2626,
      "Ġunt": 2627,
      "ĠSh": 2628,
      "Ġadminist": 2629,
      "Ġlangu": 2630,
      "ativas": 2631,
      "ĠlÃ¡": 2632,
      "Ġlater": 2633,
      "ked": 2634,
      "Ġresol": 2635,
      "Ġtur": 2636,
      "atch": 2637,
      "tt": 2638,
      "16": 2639,
      "Ġtype": 2640,
      "Ġmelhores": 2641,
      "iÃªncia": 2642,
      "ax": 2643,
      "Ġmiss": 2644,
      "ĠmÃºs": 2645,
      "los": 2646,
      "Ġareas": 2647,
      "Ġavailable": 2648,
      "Ex": 2649,
      "ificaÃ§Ã£o": 2650,
      "Como": 2651,
      "Ġsus": 2652,
      "inos": 2653,
      "ĠfÃ¡": 2654,
      "Ġvac": 2655,
      "Ġproblems": 2656,
      "ĠAnt": 2657,
      "Ġx": 2658,
      "Ġcase": 2659,
      "Ġexpect": 2660,
      "Ġsust": 2661,
      "Ġalt": 2662,
      "ĠWor": 2663,
      "Ġbased": 2664,
      "Ġrecord": 2665,
      "Ġothers": 2666,
      "ivil": 2667,
      "rug": 2668,
      "unca": 2669,
      "If": 2670,
      "NÃ£o": 2671,
      "ĠÂ": 2672,
      "Ġusu": 2673,
      "Ġcountry": 2674,
      "Ġsuccess": 2675,
      "ĠAb": 2676,
      "mpt": 2677,
      "Ġcertain": 2678,
      "ĠCO": 2679,
      "Ġequipe": 2680,
      "ĠComo": 2681,
      "ze": 2682,
      "Ġneste": 2683,
      "Ġhig": 2684,
      "org": 2685,
      "Ġautom": 2686,
      "apt": 2687,
      "Ġmunic": 2688,
      "Ġbir": 2689,
      "Ġhab": 2690,
      "ope": 2691,
      "Ġgest": 2692,
      "Ġnada": 2693,
      "Ġamong": 2694,
      "ping": 2695,
      "Ġsemana": 2696,
      "Ġprevent": 2697,
      "Ġps": 2698,
      "eta": 2699,
      ",\"": 2700,
      "mes": 2701,
      "idence": 2702,
      "ete": 2703,
      "ooks": 2704,
      "Ġcharacter": 2705,
      "terior": 2706,
      "Ġsince": 2707,
      "Ġhead": 2708,
      "ĠÃ¡gua": 2709,
      "ulg": 2710,
      "ĠTer": 2711,
      "Ġnesta": 2712,
      "Ġcancer": 2713,
      "Ġage": 2714,
      "duct": 2715,
      "ify": 2716,
      "eno": 2717,
      "Ġfollowing": 2718,
      "reas": 2719,
      "ĠnegÃ³": 2720,
      "Ġ$": 2721,
      "Ġquestion": 2722,
      "Ġlevels": 2723,
      "Ġoriginal": 2724,
      "Ġmic": 2725,
      "ĠCal": 2726,
      "ospital": 2727,
      "Ġcert": 2728,
      "....": 2729,
      "Ġmonth": 2730,
      "though": 2731,
      "Ġgrupo": 2732,
      "aves": 2733,
      "Ġproduto": 2734,
      "Ġenquanto": 2735,
      "ĠPer": 2736,
      "Ġpolic": 2737,
      "ĠnÃºmero": 2738,
      "Ġpresidente": 2739,
      "Ġcapital": 2740,
      "porte": 2741,
      "endimento": 2742,
      "Ġusar": 2743,
      "mar": 2744,
      "Ġetc": 2745,
      "Ġamount": 2746,
      "ived": 2747,
      "ĠStates": 2748,
      "olÃ³g": 2749,
      "Ġstruct": 2750,
      "ĠEl": 2751,
      "Ġdam": 2752,
      "ĠEstado": 2753,
      "kely": 2754,
      "Ġfur": 2755,
      "Ġru": 2756,
      "Ġnossos": 2757,
      "Ġpast": 2758,
      "avam": 2759,
      "Ġcells": 2760,
      "ians": 2761,
      "Ġpermit": 2762,
      "maz": 2763,
      "Ġfour": 2764,
      "ches": 2765,
      "Ġcresc": 2766,
      "ĠJan": 2767,
      "imo": 2768,
      "Ġficar": 2769,
      "Ġtinha": 2770,
      "ream": 2771,
      "Ġpub": 2772,
      "Ġname": 2773,
      "Ġregul": 2774,
      "Ġvisit": 2775,
      "Ġdue": 2776,
      "Ġsat": 2777,
      "Ġempre": 2778,
      "Ġrelacion": 2779,
      "14": 2780,
      "Ġpotential": 2781,
      "Ġfocus": 2782,
      "sel": 2783,
      "uta": 2784,
      "ĠGod": 2785,
      "ĠmilhÃµes": 2786,
      "Ġmem": 2787,
      "Ġhoras": 2788,
      "Ġmaking": 2789,
      "bon": 2790,
      "Ġconvers": 2791,
      "Ġgeral": 2792,
      "mas": 2793,
      "Ġdever": 2794,
      "pen": 2795,
      "Ġoutra": 2796,
      "Ġinvestig": 2797,
      "inar": 2798,
      "icion": 2799,
      "Pro": 2800,
      "Ġperf": 2801,
      "Ġsw": 2802,
      "ives": 2803,
      "Ġsing": 2804,
      "Ġgoverno": 2805,
      "inc": 2806,
      "omes": 2807,
      "Ġdiet": 2808,
      "Ġbal": 2809,
      "Ġviol": 2810,
      "Ġcob": 2811,
      "ficult": 2812,
      "book": 2813,
      "Ġacesso": 2814,
      "sa": 2815,
      "ĠRec": 2816,
      "TE": 2817,
      "Ġaval": 2818,
      "Ġedit": 2819,
      "oid": 2820,
      "Ġinvolv": 2821,
      "Ġtechnology": 2822,
      "200": 2823,
      "Ãĥ": 2824,
      "Ġgrat": 2825,
      "ĠVocÃª": 2826,
      "Ġjo": 2827,
      "Ã³l": 2828,
      "Ġcolor": 2829,
      "ah": 2830,
      "ursos": 2831,
      "Ġcreate": 2832,
      "ĠAlÃ©m": 2833,
      "ativos": 2834,
      "Ġtanto": 2835,
      "ination": 2836,
      "agement": 2837,
      "aixa": 2838,
      "Ġboa": 2839,
      "Ġclientes": 2840,
      "Ġtrabalh": 2841,
      "Ġeducation": 2842,
      "Ġinteress": 2843,
      "Ġtraz": 2844,
      "Ġfica": 2845,
      "Ġpropos": 2846,
      "Ġincrease": 2847,
      "Ġcomer": 2848,
      "ĠMe": 2849,
      "Ġsignificant": 2850,
      "RO": 2851,
      "inhos": 2852,
      "Ġworks": 2853,
      "ĠespaÃ§o": 2854,
      "Ġpolit": 2855,
      "not": 2856,
      "How": 2857,
      "ised": 2858,
      "atura": 2859,
      "Ġtend": 2860,
      "Ġbrain": 2861,
      "atory": 2862,
      "Ġprograma": 2863,
      "Ġdistrib": 2864,
      "Ġ198": 2865,
      "Na": 2866,
      "Ġdispos": 2867,
      "Ġbook": 2868,
      "Ġtransform": 2869,
      "ĠReg": 2870,
      "Ġlittle": 2871,
      "jam": 2872,
      "RE": 2873,
      "Ġsomething": 2874,
      "Ġfa": 2875,
      "Ġneeds": 2876,
      "Ġgente": 2877,
      "Ġshort": 2878,
      "Ġalong": 2879,
      "ĠexperiÃªncia": 2880,
      "Ġdifficult": 2881,
      "ering": 2882,
      "Ġdeb": 2883,
      "ilh": 2884,
      "Ġflu": 2885,
      "ledge": 2886,
      "Ġspecial": 2887,
      "Ġapplic": 2888,
      "ede": 2889,
      "Ġvo": 2890,
      "orre": 2891,
      "Ġans": 2892,
      "ably": 2893,
      "hy": 2894,
      "ĠNational": 2895,
      "ley": 2896,
      "Ġsystems": 2897,
      "Ġusually": 2898,
      "ĠLu": 2899,
      "ĠserviÃ§o": 2900,
      "ĠconteÃº": 2901,
      "Ġing": 2902,
      "Ġsou": 2903,
      "Ġspecific": 2904,
      "enn": 2905,
      "Ġcomun": 2906,
      "Ġnam": 2907,
      "ung": 2908,
      "just": 2909,
      "Ã¡p": 2910,
      "mptoms": 2911,
      "Ġsimilar": 2912,
      "ems": 2913,
      "ĠJe": 2914,
      "imos": 2915,
      "Ġexperience": 2916,
      "Ġdepend": 2917,
      "Ġuntil": 2918,
      "Ġteam": 2919,
      "tr": 2920,
      "Ġden": 2921,
      "ĠUm": 2922,
      "ĠChrist": 2923,
      "ĠDr": 2924,
      "Ġpred": 2925,
      "amental": 2926,
      "Ġsepar": 2927,
      "uit": 2928,
      "yn": 2929,
      "Ġdesenvolvimento": 2930,
      "ours": 2931,
      "Ġfez": 2932,
      "Ġquais": 2933,
      "ratÃ©g": 2934,
      "ĠEduc": 2935,
      "Ġtechn": 2936,
      "Ġlot": 2937,
      "ĠWhat": 2938,
      "Ġcuid": 2939,
      "ĠregiÃ£o": 2940,
      "Ġlikely": 2941,
      "ĠBr": 2942,
      "hot": 2943,
      "ured": 2944,
      "Ġgrandes": 2945,
      "Ġcontro": 2946,
      "Ġrap": 2947,
      "Ã©rie": 2948,
      "Ġdisco": 2949,
      "Ġabr": 2950,
      "Ġbot": 2951,
      "Ġproced": 2952,
      "At": 2953,
      "ires": 2954,
      "Ġclear": 2955,
      "Ġmulheres": 2956,
      "Ġsegunda": 2957,
      "Ġ...": 2958,
      "Ġrelig": 2959,
      "Ġcourse": 2960,
      "Ġep": 2961,
      "ivas": 2962,
      "ĠperÃŃ": 2963,
      "uel": 2964,
      "Ġstep": 2965,
      "For": 2966,
      "Ġlemb": 2967,
      "Ġcommunity": 2968,
      "Ġsido": 2969,
      "Ġsele": 2970,
      "istic": 2971,
      "ÃŃf": 2972,
      "oso": 2973,
      "Ġprincipais": 2974,
      "Ġconditions": 2975,
      "over": 2976,
      "Ġtecnolog": 2977,
      "Ġil": 2978,
      "Ġwar": 2979,
      "odos": 2980,
      "Ġalways": 2981,
      "Ġsugg": 2982,
      "Ġvarious": 2983,
      "Ġsuggest": 2984,
      "Ġcreat": 2985,
      "vers": 2986,
      "Ġrole": 2987,
      "Ġlig": 2988,
      "Ġrun": 2989,
      "Ġplants": 2990,
      "icult": 2991,
      "Ġwhy": 2992,
      "Ġestim": 2993,
      "Ġcart": 2994,
      "Ġdigital": 2995,
      "Ġbusiness": 2996,
      "raw": 2997,
      "Ġcand": 2998,
      "Ġcountries": 2999,
      "ĠJohn": 3000,
      "reen": 3001,
      "Ġdays": 3002,
      "Ġresist": 3003,
      "Ġcoisas": 3004,
      "Ġnunca": 3005,
      "culos": 3006,
      "idores": 3007,
      "eceu": 3008,
      "ĠPres": 3009,
      "Ġmens": 3010,
      "cional": 3011,
      "Ġauthor": 3012,
      "Ġoportun": 3013,
      "Ġgiven": 3014,
      "Ġado": 3015,
      "Ġproblemas": 3016,
      "Ġresults": 3017,
      "Ġsum": 3018,
      "ĠVer": 3019,
      "IA": 3020,
      "ĠDire": 3021,
      "iram": 3022,
      "Ġlink": 3023,
      "ĠBrit": 3024,
      "Ġevent": 3025,
      "ÃĥO": 3026,
      "ught": 3027,
      "Ġhigher": 3028,
      "Ġapproach": 3029,
      "Ġregular": 3030,
      "Ġade": 3031,
      "Ġalgo": 3032,
      "Ġhtt": 3033,
      "ĠGe": 3034,
      "Ġmesma": 3035,
      "ĠcrianÃ§as": 3036,
      "Ġjorn": 3037,
      "uf": 3038,
      "ank": 3039,
      "Ġwords": 3040,
      "Ġterm": 3041,
      "Ġnovos": 3042,
      "cular": 3043,
      "ead": 3044,
      "Ãºn": 3045,
      "Ġgrav": 3046,
      "Ġtoday": 3047,
      "Ġnet": 3048,
      "ĠTe": 3049,
      "Ġmillion": 3050,
      "ĠfamÃŃlia": 3051,
      "ĠDeus": 3052,
      "IT": 3053,
      "Ġfem": 3054,
      "Ġmeses": 3055,
      "ither": 3056,
      "inhas": 3057,
      "arch": 3058,
      "Ġimag": 3059,
      "There": 3060,
      "Ġcompre": 3061,
      "Ġdemonst": 3062,
      "put": 3063,
      "ĠPe": 3064,
      "Ġprofissionais": 3065,
      "Ġpopulation": 3066,
      "xto": 3067,
      "ĠFederal": 3068,
      "Ġobjetivo": 3069,
      "idd": 3070,
      "eles": 3071,
      "ĠserÃ£o": 3072,
      "Ġfeito": 3073,
      "Ġaud": 3074,
      "Ġthought": 3075,
      "vious": 3076,
      "Ġprefer": 3077,
      "ler": 3078,
      "Ġcoisa": 3079,
      "Ġcass": 3080,
      "Ġfuture": 3081,
      "ĠSal": 3082,
      "Ãĩ": 3083,
      "ĠMic": 3084,
      "Ġcomplex": 3085,
      "oney": 3086,
      "Ġacross": 3087,
      "Ġnext": 3088,
      "II": 3089,
      "cri": 3090,
      "Ġcat": 3091,
      "bol": 3092,
      "ĠDep": 3093,
      "Ġ2012": 3094,
      "Ġindepend": 3095,
      "by": 3096,
      "Ġreceber": 3097,
      "Ġworking": 3098,
      "Ġways": 3099,
      "icar": 3100,
      "Ġnenh": 3101,
      "rito": 3102,
      "cont": 3103,
      "Ġdiagn": 3104,
      "AM": 3105,
      "ok": 3106,
      "Ġevento": 3107,
      "ĠproduÃ§Ã£o": 3108,
      "Ġarr": 3109,
      "izada": 3110,
      "ÃŃcios": 3111,
      "Ġhora": 3112,
      "ush": 3113,
      "Ġkey": 3114,
      "Ġentanto": 3115,
      "orto": 3116,
      "Ġtypes": 3117,
      "Ġbegin": 3118,
      "Ġfel": 3119,
      "Ġemp": 3120,
      "22": 3121,
      "Ġpatients": 3122,
      "entemente": 3123,
      "Ġill": 3124,
      "ema": 3125,
      "ĠGl": 3126,
      "Ġchem": 3127,
      "Ġenough": 3128,
      "tes": 3129,
      "Ġcorpo": 3130,
      "Ġgive": 3131,
      "oro": 3132,
      "ota": 3133,
      "Ġemplo": 3134,
      "Ġarqu": 3135,
      "Ġkind": 3136,
      "Ġabove": 3137,
      "Ġbehav": 3138,
      "Ġlanguage": 3139,
      "ificar": 3140,
      "Um": 3141,
      "ĠAll": 3142,
      "Ġproblema": 3143,
      "ensÃ£o": 3144,
      "Ġeffects": 3145,
      "St": 3146,
      "Ġchanges": 3147,
      "vent": 3148,
      "Ġajudar": 3149,
      "Ġleast": 3150,
      "Ġvisual": 3151,
      "Ġcru": 3152,
      "ĠOne": 3153,
      "âĢ¢": 3154,
      "Ġmaneira": 3155,
      "Ġpri": 3156,
      "Ġcop": 3157,
      "Ġdeath": 3158,
      "Ġheart": 3159,
      "Ġven": 3160,
      "ba": 3161,
      "ilt": 3162,
      "Ġaspect": 3163,
      "Ġfilme": 3164,
      "emia": 3165,
      "isÃ£o": 3166,
      "ipal": 3167,
      "Ġcover": 3168,
      "ĠvÃ¡rios": 3169,
      "bra": 3170,
      "aut": 3171,
      "ired": 3172,
      "eds": 3173,
      "Ġchall": 3174,
      "Ġoffer": 3175,
      "eth": 3176,
      "gether": 3177,
      "Ġjov": 3178,
      "Ġtogether": 3179,
      "Ġperce": 3180,
      "Ġ40": 3181,
      "gundo": 3182,
      "Ġgost": 3183,
      "eito": 3184,
      "uros": 3185,
      "Ġevol": 3186,
      "Ġalter": 3187,
      "itura": 3188,
      "ficial": 3189,
      "Ġblog": 3190,
      "iana": 3191,
      "Ġespecially": 3192,
      "Ġreun": 3193,
      "Ġtempor": 3194,
      "Ġlaw": 3195,
      "Ġvem": 3196,
      "ĠTra": 3197,
      "ĠEu": 3198,
      "ected": 3199,
      "Ġspace": 3200,
      "Ġid": 3201,
      "Ġsymptoms": 3202,
      "onder": 3203,
      "side": 3204,
      "aps": 3205,
      "Ġimplement": 3206,
      "ĠSy": 3207,
      "ization": 3208,
      "Ġfora": 3209,
      "Ġside": 3210,
      "Ġinstal": 3211,
      "urg": 3212,
      "ograf": 3213,
      "Ġprofissional": 3214,
      "Ġpelas": 3215,
      "ament": 3216,
      "Ġrecursos": 3217,
      "ugal": 3218,
      "Ġbast": 3219,
      "Ġhowever": 3220,
      "most": 3221,
      "Ġlegal": 3222,
      "rial": 3223,
      "unci": 3224,
      "uÃŃ": 3225,
      "Ġrede": 3226,
      "Ġcit": 3227,
      "Ġview": 3228,
      "ĠestratÃ©g": 3229,
      "Ġintrodu": 3230,
      "ĠWorld": 3231,
      "Ġgas": 3232,
      "Ġadult": 3233,
      "Ġlower": 3234,
      "Ġproduction": 3235,
      "encia": 3236,
      "Ġbig": 3237,
      "Ġcy": 3238,
      "Ġaway": 3239,
      "ĠFil": 3240,
      "mon": 3241,
      "uir": 3242,
      "Ġdescrib": 3243,
      "Ġstrong": 3244,
      "Ġ22": 3245,
      "Ġconcer": 3246,
      "Ġsoftware": 3247,
      "Ġteve": 3248,
      "ĠPal": 3249,
      "Ġvide": 3250,
      "amp": 3251,
      "Ġdecid": 3252,
      "ĠEar": 3253,
      "erve": 3254,
      "Ġcateg": 3255,
      "Ġfall": 3256,
      "Ġsociais": 3257,
      "ĠinÃŃcio": 3258,
      "Ġrecon": 3259,
      "ample": 3260,
      "ifest": 3261,
      "Ġsubject": 3262,
      "Ġgoing": 3263,
      "Ġmakes": 3264,
      "ĠvÃŃdeo": 3265,
      "Ġpontos": 3266,
      "Ġaltern": 3267,
      "ĠJust": 3268,
      "Ġdizer": 3269,
      "Ġquase": 3270,
      "Ġyoung": 3271,
      "Ġfull": 3272,
      "iano": 3273,
      "selves": 3274,
      "AC": 3275,
      "Ġcurrent": 3276,
      "gue": 3277,
      "aca": 3278,
      "load": 3279,
      "Ġcompr": 3280,
      "Ġextra": 3281,
      "Ġcandid": 3282,
      "Ġfig": 3283,
      "Ġrange": 3284,
      "ĠEsc": 3285,
      "oman": 3286,
      "Ġ21": 3287,
      "uito": 3288,
      "Ġcentury": 3289,
      "ively": 3290,
      "ony": 3291,
      "ĠperÃŃodo": 3292,
      "60": 3293,
      "Ġcases": 3294,
      "panha": 3295,
      "23": 3296,
      "Ġproducts": 3297,
      "Ġther": 3298,
      "etes": 3299,
      "ered": 3300,
      "ques": 3301,
      "ilidade": 3302,
      "ĠpÃ¡g": 3303,
      "ĠEnglish": 3304,
      "ann": 3305,
      "ensive": 3306,
      "ĠMo": 3307,
      "ĠvÃ¡rias": 3308,
      "ĠGovern": 3309,
      "Ġreach": 3310,
      "alt": 3311,
      "Ġexc": 3312,
      "ready": 3313,
      "Ġcontato": 3314,
      "ĠRo": 3315,
      "Ġdevem": 3316,
      "Ġmarca": 3317,
      "ban": 3318,
      "atures": 3319,
      "ĠWest": 3320,
      "Ġmer": 3321,
      "oma": 3322,
      "Ġnever": 3323,
      "Ġphysical": 3324,
      "Ġadequ": 3325,
      "ators": 3326,
      "Ġacess": 3327,
      "Ġself": 3328,
      "Ġscience": 3329,
      "Ġhaving": 3330,
      "Ġlog": 3331,
      "Ġnuma": 3332,
      "amm": 3333,
      "ande": 3334,
      "Ġsure": 3335,
      "ĠWith": 3336,
      "ĠIsso": 3337,
      "ĠMinist": 3338,
      "Ġoferece": 3339,
      "Ġtenha": 3340,
      "ila": 3341,
      "Ġcriar": 3342,
      "Ġcoment": 3343,
      "Ġexclus": 3344,
      "Ġinstitu": 3345,
      "inking": 3346,
      "Ġstudies": 3347,
      "Ġknowledge": 3348,
      "Ġfinance": 3349,
      "ake": 3350,
      "eraÃ§Ã£o": 3351,
      "ĠRep": 3352,
      "Ġwhether": 3353,
      "Ġflow": 3354,
      "ĠaÃ§Ãµes": 3355,
      "Ġrelations": 3356,
      "thern": 3357,
      "pression": 3358,
      "ologia": 3359,
      "Ġded": 3360,
      "Ġambiente": 3361,
      "ĠSome": 3362,
      "Ġalta": 3363,
      "Ġtemos": 3364,
      "Ġresultados": 3365,
      "ĠJos": 3366,
      "Ġtent": 3367,
      "Ġafirm": 3368,
      "Ġmind": 3369,
      "quele": 3370,
      "Ġha": 3371,
      "Ġlive": 3372,
      "Ġvend": 3373,
      "Ġcomunic": 3374,
      "Ġnoite": 3375,
      "ince": 3376,
      "Ap": 3377,
      "Ġesses": 3378,
      "ĠNacional": 3379,
      "ney": 3380,
      "When": 3381,
      "asing": 3382,
      "Ġloss": 3383,
      "Ġinternet": 3384,
      "Ġestabele": 3385,
      "vo": 3386,
      "Ġinsp": 3387,
      "Ġhomem": 3388,
      "Ġ197": 3389,
      "ĠnecessÃ¡rio": 3390,
      "Ġsucesso": 3391,
      "Ġassess": 3392,
      "wards": 3393,
      "Ã¡b": 3394,
      "isl": 3395,
      "Ġampl": 3396,
      "Ġvalue": 3397,
      "Ġhabit": 3398,
      "Ġtar": 3399,
      "iving": 3400,
      "Ġcerca": 3401,
      "Ġconj": 3402,
      "Ġalun": 3403,
      "Ġperman": 3404,
      "Ġfarm": 3405,
      "ĠrÃ¡p": 3406,
      "Ġdetal": 3407,
      "ĠmÃªs": 3408,
      "ĠUma": 3409,
      "Ġpen": 3410,
      "Ġleft": 3411,
      "Ġponto": 3412,
      "ĠfÃ¡cil": 3413,
      "ysis": 3414,
      "alf": 3415,
      "Ġaccount": 3416,
      "Ġperg": 3417,
      "Ġmedical": 3418,
      "Ã£e": 3419,
      "ecem": 3420,
      "Ġperm": 3421,
      "Ġresources": 3422,
      "urity": 3423,
      "Ġnovas": 3424,
      "Ġpas": 3425,
      "Ãºb": 3426,
      "EM": 3427,
      "Ġexecut": 3428,
      "Ġfinan": 3429,
      "Ġexer": 3430,
      "omas": 3431,
      "ĠsituaÃ§Ã£o": 3432,
      "EC": 3433,
      "Ġcolle": 3434,
      "ulas": 3435,
      "Ġalready": 3436,
      "eram": 3437,
      "Ġpalav": 3438,
      "www": 3439,
      "Ġ:": 3440,
      "Ġdrug": 3441,
      "Ġprob": 3442,
      "Ã³n": 3443,
      "Ġreason": 3444,
      "Ġbran": 3445,
      "Ġpay": 3446,
      "ĠvÃ£o": 3447,
      "Ġquality": 3448,
      "Ġvirt": 3449,
      "ĠHealth": 3450,
      "Ġfurther": 3451,
      "Ġinici": 3452,
      "ched": 3453,
      "ĠsÃ©rie": 3454,
      "fl": 3455,
      "self": 3456,
      "ĠStud": 3457,
      "Ġconcent": 3458,
      "Ġactivities": 3459,
      "Ġline": 3460,
      "EL": 3461,
      "Ġori": 3462,
      "ĠaÃ§Ã£o": 3463,
      "ĠpreÃ§o": 3464,
      "Ġreally": 3465,
      "Ġsites": 3466,
      "IV": 3467,
      "Ġmental": 3468,
      "Ġwr": 3469,
      "ctor": 3470,
      "hÃ£": 3471,
      "Ġlongo": 3472,
      "Ġatividades": 3473,
      "nal": 3474,
      "redit": 3475,
      "Ġdireito": 3476,
      "Ch": 3477,
      "inter": 3478,
      "inta": 3479,
      "Ġdez": 3480,
      "ĠfÃŃs": 3481,
      "Ġcompon": 3482,
      "Ġarm": 3483,
      "day": 3484,
      "Ġemerg": 3485,
      "ĠBy": 3486,
      "ĠconteÃºdo": 3487,
      "ĠSim": 3488,
      "ili": 3489,
      "iÃ§a": 3490,
      "Ġlay": 3491,
      "ĠWar": 3492,
      "Ġquatro": 3493,
      "Ġlimit": 3494,
      "ĠpoderÃ¡": 3495,
      "Ġcut": 3496,
      "ociaÃ§Ã£o": 3497,
      "Ġord": 3498,
      "Ġground": 3499,
      "Ġissues": 3500,
      "ĠChina": 3501,
      "Ġgrowth": 3502,
      "Ġig": 3503,
      "Ġstory": 3504,
      "Ġskills": 3505,
      "Ġge": 3506,
      "ĠopÃ§Ãµes": 3507,
      "prio": 3508,
      "aim": 3509,
      "erto": 3510,
      "Ġbelow": 3511,
      "rutura": 3512,
      "US": 3513,
      "Ġmaioria": 3514,
      "25": 3515,
      "Ġconsist": 3516,
      "Ġreduce": 3517,
      "issÃ£o": 3518,
      "Ġcity": 3519,
      "ements": 3520,
      "inte": 3521,
      "ĠOl": 3522,
      "ening": 3523,
      "Ġpractice": 3524,
      "Ġfundamental": 3525,
      "Ġpret": 3526,
      "Ġengine": 3527,
      "Ġcele": 3528,
      "Ġconcept": 3529,
      "Ġblack": 3530,
      "Ġquestions": 3531,
      "gas": 3532,
      "Ġskin": 3533,
      "Ġfri": 3534,
      "Ġestado": 3535,
      "Ġreturn": 3536,
      "Ġcaracter": 3537,
      "Ġopportun": 3538,
      "Ġdess": 3539,
      "ising": 3540,
      "Ġexplain": 3541,
      "Ġajuda": 3542,
      "ird": 3543,
      "Ġhistor": 3544,
      "ĠMulher": 3545,
      "Ġfrente": 3546,
      "Ġhouse": 3547,
      "Ġachie": 3548,
      "ĠFr": 3549,
      "Ġfeed": 3550,
      "Ġrecomm": 3551,
      "Ġconce": 3552,
      "Ġresearchers": 3553,
      "Ġmotor": 3554,
      "En": 3555,
      "ÃŃm": 3556,
      "ĠOut": 3557,
      "ĠPortugal": 3558,
      "ĠDec": 3559,
      "Ġvolta": 3560,
      "ĠdÃ¡": 3561,
      "ification": 3562,
      "Ġfalar": 3563,
      "Ġseen": 3564,
      "ibility": 3565,
      "atÃ³rio": 3566,
      "Ġplata": 3567,
      "ĠnÃŃvel": 3568,
      "Ġpapel": 3569,
      "ÃŃpio": 3570,
      "gum": 3571,
      "Ġopin": 3572,
      "Ġsabe": 3573,
      "Ġsingle": 3574,
      "ĠThat": 3575,
      "Ġcentral": 3576,
      "acionais": 3577,
      "Ġideal": 3578,
      "oi": 3579,
      "Ġdone": 3580,
      "ĠSil": 3581,
      "Ġminist": 3582,
      "Ġbuilding": 3583,
      "Ġamor": 3584,
      "Ġmach": 3585,
      "Ġabaixo": 3586,
      "Ġbusca": 3587,
      "Ġdeixar": 3588,
      "Ġali": 3589,
      "Ġartigo": 3590,
      "mais": 3591,
      "Ġpossui": 3592,
      "ĠVal": 3593,
      "Ġsen": 3594,
      "ĠMunic": 3595,
      "Ġdeveloped": 3596,
      "Ġpressure": 3597,
      "Ġansw": 3598,
      "Ġfield": 3599,
      "40": 3600,
      "Ġdescob": 3601,
      "Ġaddress": 3602,
      "Ġclos": 3603,
      "ĠAust": 3604,
      "Ġshows": 3605,
      "cha": 3606,
      "Ġface": 3607,
      "own": 3608,
      "ĠprÃ³prio": 3609,
      "ĠGen": 3610,
      "Ġbecame": 3611,
      "Ġinclus": 3612,
      "Ġ2010": 3613,
      "abric": 3614,
      "Ġanimals": 3615,
      "Ġmaterials": 3616,
      "Ġprocur": 3617,
      "Ar": 3618,
      "ĠAct": 3619,
      "Ġfunction": 3620,
      "Ġbon": 3621,
      "Ġaccording": 3622,
      "Ġast": 3623,
      "Ġarticle": 3624,
      "Ġjogadores": 3625,
      "Ġmodelo": 3626,
      "Ġminutos": 3627,
      "Ġactivity": 3628,
      "Ãºv": 3629,
      "Ġ2013": 3630,
      "Ġexplor": 3631,
      "esus": 3632,
      "Ġrot": 3633,
      "ened": 3634,
      "ensa": 3635,
      "ulho": 3636,
      "Ġsil": 3637,
      "ogle": 3638,
      "Ġrecogn": 3639,
      "Ġrevel": 3640,
      "ĠterÃ¡": 3641,
      "Ġfotos": 3642,
      "Ġresid": 3643,
      "Ġhealthy": 3644,
      "Ġatu": 3645,
      "ĠSem": 3646,
      "Ġseria": 3647,
      "acks": 3648,
      "ĠTem": 3649,
      "ĠcondiÃ§Ãµes": 3650,
      "iÃµes": 3651,
      "Ġclimate": 3652,
      "eja": 3653,
      "Ġ+": 3654,
      "Ġunderstanding": 3655,
      "Ġaddition": 3656,
      "acy": 3657,
      "ray": 3658,
      "Ġword": 3659,
      "itude": 3660,
      "Ġ=": 3661,
      "Ġenvi": 3662,
      "ĠHist": 3663,
      "Ã¡tis": 3664,
      "Ġanimal": 3665,
      "Ġbit": 3666,
      "arem": 3667,
      "Ãºblic": 3668,
      "Ġmanter": 3669,
      "eness": 3670,
      "ooking": 3671,
      "ĠRob": 3672,
      "Ġessas": 3673,
      "Ġlivro": 3674,
      "Ġtas": 3675,
      "Ġeffort": 3676,
      "Ġpassado": 3677,
      "Ġnar": 3678,
      "Ġlabor": 3679,
      "ĠNorth": 3680,
      "ights": 3681,
      "Ġveget": 3682,
      "Ġextrem": 3683,
      "Ġsurface": 3684,
      "idor": 3685,
      "Ġcomprar": 3686,
      "Ġcliente": 3687,
      "Ġwhole": 3688,
      "Ġliter": 3689,
      "iba": 3690,
      "Ġconsult": 3691,
      "Ġeffective": 3692,
      "Ġnational": 3693,
      "Ġgrad": 3694,
      "Ġcarro": 3695,
      "Ġsecret": 3696,
      "icient": 3697,
      "elas": 3698,
      "Ġcontent": 3699,
      "Ġmembers": 3700,
      "fort": 3701,
      "Ġferram": 3702,
      "Ã³rios": 3703,
      "zes": 3704,
      "ĠYork": 3705,
      "Ġwhite": 3706,
      "Ġconfirm": 3707,
      "Ġonce": 3708,
      "Ġrespon": 3709,
      "rie": 3710,
      "Ġbastante": 3711,
      "Ġsize": 3712,
      "Ġeconomic": 3713,
      "Ã³p": 3714,
      "Ġ60": 3715,
      "ĠEd": 3716,
      "ker": 3717,
      "Ġmicro": 3718,
      "Ent": 3719,
      "Ġfive": 3720,
      "Ġfato": 3721,
      "Ġexig": 3722,
      "Ġcomes": 3723,
      "ĠProgram": 3724,
      "Ġrather": 3725,
      "ĠAmerica": 3726,
      "21": 3727,
      "Ġsac": 3728,
      "ĠFe": 3729,
      "Ġweek": 3730,
      "Ġsound": 3731,
      "Ġavoid": 3732,
      "Ġalguma": 3733,
      "Ġquick": 3734,
      "Ġprest": 3735,
      "Ġcontact": 3736,
      "Ġpaper": 3737,
      "umb": 3738,
      "Ġmonitor": 3739,
      "Ġstrateg": 3740,
      "yl": 3741,
      "Ġ23": 3742,
      "no": 3743,
      "inh": 3744,
      "Ġcasos": 3745,
      "Ġsource": 3746,
      "Ġweb": 3747,
      "Ġobrig": 3748,
      "Ġcommunic": 3749,
      "Ġgroups": 3750,
      "Ġfix": 3751,
      "To": 3752,
      "vest": 3753,
      "ĠEU": 3754,
      "Ġmeet": 3755,
      "ison": 3756,
      "Ġposit": 3757,
      "Ġdro": 3758,
      "Ġmim": 3759,
      "itaÃ§Ã£o": 3760,
      "Ġconsidered": 3761,
      "jas": 3762,
      "Ġcollect": 3763,
      "ĠQue": 3764,
      "Ã©l": 3765,
      "Ġrespect": 3766,
      "eto": 3767,
      "indows": 3768,
      "Ġinit": 3769,
      "Ġcurso": 3770,
      "Ġproduz": 3771,
      "Ġmodo": 3772,
      "Ac": 3773,
      "lt": 3774,
      "osse": 3775,
      "AP": 3776,
      "raft": 3777,
      "Ġfail": 3778,
      "elling": 3779,
      "Ġharm": 3780,
      "ĠPart": 3781,
      "Ġcard": 3782,
      "ED": 3783,
      "Ġstress": 3784,
      "Ġsimple": 3785,
      "icaÃ§Ãµes": 3786,
      "Ġresultado": 3787,
      "Ġlab": 3788,
      "ĠGerman": 3789,
      "Ġeither": 3790,
      "ving": 3791,
      "Ġpi": 3792,
      "ET": 3793,
      "Ġtratamento": 3794,
      "uper": 3795,
      "urante": 3796,
      "ĠMay": 3797,
      "Uma": 3798,
      "VocÃª": 3799,
      "Ġessential": 3800,
      "cing": 3801,
      "Ġtecnologia": 3802,
      "erson": 3803,
      "Ġrequired": 3804,
      "ĠopÃ§Ã£o": 3805,
      "Ġprior": 3806,
      "ualmente": 3807,
      "ĠJap": 3808,
      "Ġ2011": 3809,
      "Ġmaintain": 3810,
      "ĠlÃŃ": 3811,
      "Ġrate": 3812,
      "Ġreserv": 3813,
      "Ad": 3814,
      "ried": 3815,
      "Ġpagamento": 3816,
      "Ġconcern": 3817,
      "ule": 3818,
      "Ġoil": 3819,
      "Ġcondition": 3820,
      "ending": 3821,
      "ĠprÃ³ximo": 3822,
      "inaÃ§Ã£o": 3823,
      "ĠAut": 3824,
      "Ġability": 3825,
      "Ġactually": 3826,
      "aman": 3827,
      "Ġdesse": 3828,
      "ĠdÃºv": 3829,
      "ĠCur": 3830,
      "Ġrelated": 3831,
      "Ġdessa": 3832,
      "Ġprime": 3833,
      "ections": 3834,
      "Ġbehavior": 3835,
      "vio": 3836,
      "Ġfiz": 3837,
      "Ġtaken": 3838,
      "Ġvari": 3839,
      "fo": 3840,
      "mail": 3841,
      "Ġcreated": 3842,
      "Ġcum": 3843,
      "Ġwebs": 3844,
      "reira": 3845,
      "Ġmand": 3846,
      "ago": 3847,
      "Ġfalta": 3848,
      "Ġmob": 3849,
      "Ġfra": 3850,
      "emic": 3851,
      "ĠatenÃ§Ã£o": 3852,
      "Ġdesem": 3853,
      "Ġreceb": 3854,
      "Ġhold": 3855,
      "ĠSul": 3856,
      "Ġcapt": 3857,
      "Ġassociated": 3858,
      ".)": 3859,
      "ĠpaÃŃses": 3860,
      "IM": 3861,
      "vas": 3862,
      "ĠDis": 3863,
      "yle": 3864,
      "Ġhospital": 3865,
      "ĠJesus": 3866,
      "Ġapoio": 3867,
      "Ġenergia": 3868,
      "Ġresta": 3869,
      "Ġpreciso": 3870,
      "ark": 3871,
      "Ġpessoal": 3872,
      "gre": 3873,
      "Ġpesquisa": 3874,
      "Ġdeta": 3875,
      "ĠveÃŃ": 3876,
      "itional": 3877,
      "Ġliving": 3878,
      "Ġincreased": 3879,
      "ror": 3880,
      "ĠCap": 3881,
      "Ġthough": 3882,
      "olo": 3883,
      "Ġtransfer": 3884,
      "ĠShe": 3885,
      "Ġmarc": 3886,
      "Ġvag": 3887,
      "ĠmÃºsica": 3888,
      "Ġfamiliar": 3889,
      "ĠpolÃŃtica": 3890,
      "ĠSte": 3891,
      "ĠConf": 3892,
      "Ġmuita": 3893,
      "ocup": 3894,
      "Ġrapid": 3895,
      "anos": 3896,
      "ĠTV": 3897,
      "Ġjunt": 3898,
      "irar": 3899,
      "pria": 3900,
      "orrer": 3901,
      "Ġneeded": 3902,
      "ĠSouth": 3903,
      "Ġweight": 3904,
      "Ġenvolv": 3905,
      "hol": 3906,
      "Ġpassar": 3907,
      "ari": 3908,
      "Ġlat": 3909,
      "Ġthemselves": 3910,
      "Ġcompany": 3911,
      "leep": 3912,
      "ĠpopulaÃ§Ã£o": 3913,
      "Ġchemical": 3914,
      "Ġtw": 3915,
      "Ġann": 3916,
      "ally": 3917,
      "ĠSaÃºde": 3918,
      "astic": 3919,
      "Ġacad": 3920,
      "Ġidea": 3921,
      "Ġvot": 3922,
      "Ġprogress": 3923,
      "era": 3924,
      "Ġparts": 3925,
      "ĠUs": 3926,
      "You": 3927,
      "Ġdele": 3928,
      "Ġpermite": 3929,
      "Ġfib": 3930,
      "son": 3931,
      "Ġpresente": 3932,
      "Mas": 3933,
      "Le": 3934,
      "Ã³rias": 3935,
      "gra": 3936,
      "Ġsociedade": 3937,
      "ĠÃ¡reas": 3938,
      "Ġcannot": 3939,
      "ÃŃsticas": 3940,
      "Ġdesaf": 3941,
      "Ġelement": 3942,
      "Ġprovides": 3943,
      "Ġrelationship": 3944,
      "ĠSol": 3945,
      "Ġjun": 3946,
      "Ġservices": 3947,
      "Ġcarbon": 3948,
      "Ġchegar": 3949,
      "Ġimprove": 3950,
      "Ġjob": 3951,
      "ingo": 3952,
      "Ġnecessary": 3953,
      "Ġcel": 3954,
      "urch": 3955,
      "Ġentrar": 3956,
      "Ġmanagement": 3957,
      "ffer": 3958,
      "aged": 3959,
      "Ġfish": 3960,
      "Ġrights": 3961,
      "Ġpropri": 3962,
      "Ã¡ticas": 3963,
      "ery": 3964,
      "Ġalc": 3965,
      "Ġpropor": 3966,
      "Ġpublished": 3967,
      "Ġexercis": 3968,
      "Ġreact": 3969,
      "iab": 3970,
      "IL": 3971,
      "Ġcontrat": 3972,
      "80": 3973,
      "illed": 3974,
      "Ġinstrum": 3975,
      "Ġstudent": 3976,
      "Ġremov": 3977,
      "aw": 3978,
      "ĠCr": 3979,
      "Ġtransport": 3980,
      "Ã¡lise": 3981,
      "Ġprincipalmente": 3982,
      "Ġtyp": 3983,
      "Ġprost": 3984,
      "ST": 3985,
      "ĠSecret": 3986,
      "Ġevidence": 3987,
      "Ġadapt": 3988,
      "ÃŃda": 3989,
      "Ġclean": 3990,
      "ĠProf": 3991,
      "Ġperformance": 3992,
      "Ġstop": 3993,
      "Ġconsequ": 3994,
      "oft": 3995,
      "bit": 3996,
      "Ġmoney": 3997,
      "mission": 3998,
      "ored": 3999,
      "ufact": 4000,
      "NA": 4001,
      "Ġinterpre": 4002,
      "):": 4003,
      "erous": 4004,
      "artment": 4005,
      "Ġminim": 4006,
      "au": 4007,
      "ych": 4008,
      "Ġreading": 4009,
      "OL": 4010,
      "tima": 4011,
      "Ġganhar": 4012,
      "ĠAo": 4013,
      "erta": 4014,
      "Ġnews": 4015,
      "Ġindustry": 4016,
      "ĠMil": 4017,
      "Ġescrit": 4018,
      "Ġfactors": 4019,
      "90": 4020,
      "ĠpÃºblic": 4021,
      "Ġterce": 4022,
      "ĠConst": 4023,
      "Ġpet": 4024,
      "Ġalmost": 4025,
      "Ġentire": 4026,
      "isto": 4027,
      "Ġfabric": 4028,
      "ĠÃģ": 4029,
      "ĠResearch": 4030,
      "ĠEarth": 4031,
      "ĠprÃ¡tica": 4032,
      "Ġdog": 4033,
      "verage": 4034,
      "utebol": 4035,
      "ike": 4036,
      "ĠJul": 4037,
      "ĠmÃ£e": 4038,
      "Ġlic": 4039,
      "Ġcheck": 4040,
      "Ġrealmente": 4041,
      "Ġnacional": 4042,
      "Ġstates": 4043,
      "ĠRed": 4044,
      "bre": 4045,
      "itch": 4046,
      "Ġlhe": 4047,
      "eria": 4048,
      "atal": 4049,
      "Ġindividuals": 4050,
      "Ġmonths": 4051,
      "ĠprÃ³pria": 4052,
      "ĠQuando": 4053,
      "Ġreduz": 4054,
      "ĠHar": 4055,
      "Ġhavia": 4056,
      "uls": 4057,
      "Ġwriting": 4058,
      "Ġamigos": 4059,
      "Ġelev": 4060,
      "Ġredes": 4061,
      "Ġcant": 4062,
      "Ġ2020": 4063,
      "ournal": 4064,
      "rict": 4065,
      "ĠFaz": 4066,
      "Ġtrabalhar": 4067,
      "Ġcomputer": 4068,
      "Ġproc": 4069,
      "Ġrod": 4070,
      "ĠGoogle": 4071,
      "Ġspread": 4072,
      "inks": 4073,
      "ĠinformaÃ§Ã£o": 4074,
      "Ġesqu": 4075,
      "Ġassum": 4076,
      "On": 4077,
      "24": 4078,
      "itute": 4079,
      "ĠArt": 4080,
      "Ġpurpos": 4081,
      "Ġnossas": 4082,
      "ronic": 4083,
      "Ġcultural": 4084,
      "Ġdiversas": 4085,
      "Ġbenefits": 4086,
      "sh": 4087,
      "Ġthroughout": 4088,
      "Ġpolitical": 4089,
      "ests": 4090,
      "ises": 4091,
      "Ġaprove": 4092,
      "ĠdifÃŃ": 4093,
      "Ġbeb": 4094,
      "eix": 4095,
      "Ġtemperature": 4096,
      "Ġdific": 4097,
      "Ġpreocup": 4098,
      "ĠÃºltima": 4099,
      "Ġcame": 4100,
      "Ġdeclar": 4101,
      "Ġcoll": 4102,
      "Ġescre": 4103,
      "Ġtenho": 4104,
      "ĠTrans": 4105,
      "Ġelas": 4106,
      "ĠLib": 4107,
      "Ġcassino": 4108,
      "Ġ2021": 4109,
      "Ġcompos": 4110,
      "Ġcauses": 4111,
      "isf": 4112,
      "ecimento": 4113,
      "ocal": 4114,
      "Ġservice": 4115,
      "AlÃ©m": 4116,
      "ky": 4117,
      "Ġjud": 4118,
      "Ġjornal": 4119,
      "eda": 4120,
      "Ġitself": 4121,
      "ĠgestÃ£o": 4122,
      "Ġrecebe": 4123,
      "met": 4124,
      "Ġjogar": 4125,
      "Ġprova": 4126,
      "erra": 4127,
      "Ġupon": 4128,
      "Ġliber": 4129,
      "Ġrisco": 4130,
      "Ġcausa": 4131,
      "dom": 4132,
      "lam": 4133,
      "Ġnecessidade": 4134,
      "echan": 4135,
      "Ġmont": 4136,
      "Ġcontrole": 4137,
      "hold": 4138,
      "ilha": 4139,
      "Ġaprov": 4140,
      "ENT": 4141,
      "Ġdocument": 4142,
      "Ġficou": 4143,
      "Ġconduct": 4144,
      "oph": 4145,
      "Ġcinco": 4146,
      "ovo": 4147,
      "ĠdecisÃ£o": 4148,
      "cording": 4149,
      "Ġemail": 4150,
      "ĠNot": 4151,
      "Ġconserv": 4152,
      "ĠBrasile": 4153,
      "Ġlinha": 4154,
      "Ġlista": 4155,
      "adamente": 4156,
      "ables": 4157,
      "Ġrelev": 4158,
      "Ġtrib": 4159,
      "Ġsoil": 4160,
      "Ġregion": 4161,
      "fica": 4162,
      "Ġatr": 4163,
      "Ġjan": 4164,
      "Ġmeasure": 4165,
      "Ġtiver": 4166,
      "Ġwid": 4167,
      "Ġinj": 4168,
      "Ġcoord": 4169,
      "itary": 4170,
      "ĠII": 4171,
      "Ġimpl": 4172,
      "Ġconhecimento": 4173,
      "Ġdiversos": 4174,
      "Cl": 4175,
      "iza": 4176,
      "Ġcole": 4177,
      "ĠInternet": 4178,
      "ĠEste": 4179,
      "ĠHum": 4180,
      "Ġcompart": 4181,
      "Ġrepl": 4182,
      "Ġparents": 4183,
      "Ġmagn": 4184,
      "lying": 4185,
      "Ġ27": 4186,
      "apy": 4187,
      "Ãºst": 4188,
      "ring": 4189,
      "Ġhalf": 4190,
      "undial": 4191,
      "Ġconcl": 4192,
      "Ġdiss": 4193,
      "hib": 4194,
      "Ġmist": 4195,
      "Ġacompanh": 4196,
      "Ġ2018": 4197,
      "Ġdivid": 4198,
      "based": 4199,
      "Ġincreasing": 4200,
      "Ġprofessor": 4201,
      "Ġox": 4202,
      "Ġseguir": 4203,
      "Ġdivulg": 4204,
      "ĠSocial": 4205,
      "Ġnor": 4206,
      "Ġexcel": 4207,
      "Ġproduce": 4208,
      "ĠusuÃ¡rios": 4209,
      "Ġdir": 4210,
      "Ġeasy": 4211,
      "rael": 4212,
      "RI": 4213,
      "Ġinteract": 4214,
      "ĠquestÃ£o": 4215,
      "Ġtaking": 4216,
      "utions": 4217,
      "ĠversÃ£o": 4218,
      "Ġheat": 4219,
      "Ġaction": 4220,
      "qui": 4221,
      "ĠOb": 4222,
      "Ġgarantir": 4223,
      "Ġever": 4224,
      "ality": 4225,
      "ĠÃ©p": 4226,
      "Ġemiss": 4227,
      "Ġren": 4228,
      "Ġcaused": 4229,
      "Ġeat": 4230,
      "Ġmaiores": 4231,
      "Ġimagem": 4232,
      "Ġdedic": 4233,
      "Ġsequ": 4234,
      "Ġcapacidade": 4235,
      "ipe": 4236,
      "enÃ§as": 4237,
      "Ġpan": 4238,
      "Ġfazendo": 4239,
      "dio": 4240,
      "Ġcabe": 4241,
      "Ġrul": 4242,
      "ips": 4243,
      "Ã¡tico": 4244,
      "oll": 4245,
      "ĠVide": 4246,
      "Ġcontinue": 4247,
      "sos": 4248,
      "Ġclaro": 4249,
      "Ġpattern": 4250,
      "Ġconhecer": 4251,
      "PA": 4252,
      "Ġatendimento": 4253,
      "Ass": 4254,
      "Ġsun": 4255,
      "ilos": 4256,
      "bers": 4257,
      "ĠPat": 4258,
      "ulation": 4259,
      "ĠEstados": 4260,
      "ÃŃnio": 4261,
      "quir": 4262,
      "ĠInter": 4263,
      "elig": 4264,
      "ĠWill": 4265,
      "Ġdisord": 4266,
      "ĠIndia": 4267,
      "Ġenvironmental": 4268,
      "Ġlives": 4269,
      "ala": 4270,
      "ĠgrÃ¡tis": 4271,
      "Ġbasic": 4272,
      "ÃŃcias": 4273,
      "Ġalunos": 4274,
      "Ġtell": 4275,
      "orial": 4276,
      "Ġviv": 4277,
      "Ġsix": 4278,
      "Ġpele": 4279,
      "iddle": 4280,
      "Eu": 4281,
      "Ġdireitos": 4282,
      "ĠSchool": 4283,
      "guÃ©m": 4284,
      "ÃŃtulo": 4285,
      "izados": 4286,
      "Ġanalysis": 4287,
      "Ġbra": 4288,
      "ĠBra": 4289,
      "Ġace": 4290,
      "Ġfederal": 4291,
      "Ġrecent": 4292,
      "Ġmix": 4293,
      "Ġconqu": 4294,
      "uiÃ§Ã£o": 4295,
      "Ġnesse": 4296,
      "ĠWhile": 4297,
      "ucle": 4298,
      "Ġpais": 4299,
      "Ġlogo": 4300,
      "osis": 4301,
      "Ġvel": 4302,
      "Ġ26": 4303,
      "Ġmort": 4304,
      "aging": 4305,
      "ĠEsp": 4306,
      "ĠÃºltimo": 4307,
      "uge": 4308,
      "ĠKing": 4309,
      "Ġregard": 4310,
      "ĠimportÃ¢ncia": 4311,
      "ension": 4312,
      "Ġschools": 4313,
      "Ġbacter": 4314,
      "Ġescolher": 4315,
      "Ġprazo": 4316,
      "Ġste": 4317,
      "Ġagricult": 4318,
      "Ġsense": 4319,
      "OM": 4320,
      "oura": 4321,
      "Ġexiste": 4322,
      "Ġprofessional": 4323,
      "ografia": 4324,
      "ĠMet": 4325,
      "Ġale": 4326,
      "Ġphot": 4327,
      "Ġtraining": 4328,
      "orno": 4329,
      "other": 4330,
      "Ġfire": 4331,
      "Ġtexto": 4332,
      "uk": 4333,
      "Ġfoods": 4334,
      "Ġbegan": 4335,
      "Ġdesigned": 4336,
      "Ġensure": 4337,
      "Ġpodemos": 4338,
      "Ġrealizar": 4339,
      "PS": 4340,
      "Ġterms": 4341,
      "Ġtarde": 4342,
      "Ġlonger": 4343,
      "ners": 4344,
      "anced": 4345,
      "Ġprint": 4346,
      "volve": 4347,
      "Ġvariety": 4348,
      "Ġdiferente": 4349,
      "à¸": 4350,
      "ĠMon": 4351,
      "Ġ28": 4352,
      "Ġyet": 4353,
      "Ġcultura": 4354,
      "ĠSuper": 4355,
      "ĠCop": 4356,
      "Ġdeles": 4357,
      "Ġhours": 4358,
      "Ġsentido": 4359,
      "Ã³t": 4360,
      "Ġstandard": 4361,
      "Ġhol": 4362,
      "anta": 4363,
      "Ġimage": 4364,
      "fully": 4365,
      "frica": 4366,
      "Ġshar": 4367,
      "Ġcampo": 4368,
      "Ġmove": 4369,
      "ivity": 4370,
      "Ġreconhec": 4371,
      "Ġsociety": 4372,
      "Ġbuilt": 4373,
      "Ġchalleng": 4374,
      "Ġportugu": 4375,
      "cin": 4376,
      "Ġincludes": 4377,
      "Ġtook": 4378,
      "ĠFace": 4379,
      "Ġplane": 4380,
      "reng": 4381,
      "orge": 4382,
      "Ġdeterm": 4383,
      "Ġacid": 4384,
      "Ġvista": 4385,
      "Ġdamage": 4386,
      "aÃ§a": 4387,
      "irit": 4388,
      "Ġhttp": 4389,
      "Ġextern": 4390,
      "Ġelimin": 4391,
      "ĠdisponÃŃvel": 4392,
      "ĠconstruÃ§Ã£o": 4393,
      "Ġdevido": 4394,
      "ford": 4395,
      "Ġmultip": 4396,
      "Ġmanufact": 4397,
      "Ġsuperior": 4398,
      "rength": 4399,
      "Ġcomum": 4400,
      "Ġdiscover": 4401,
      "Ġvamos": 4402,
      "Ġ2009": 4403,
      "Ġoportunidade": 4404,
      "Ãģ": 4405,
      "Ġating": 4406,
      "Ġlevar": 4407,
      "Ġefic": 4408,
      "Ġorient": 4409,
      "Ġbab": 4410,
      "ĠpÃ¡gina": 4411,
      "Ġestamos": 4412,
      "Ġprograms": 4413,
      "ished": 4414,
      "Ġabord": 4415,
      "enos": 4416,
      "Ġfilho": 4417,
      "Ġposition": 4418,
      "Ġlegisl": 4419,
      "ĠprÃ©": 4420,
      ");": 4421,
      "iter": 4422,
      "anas": 4423,
      "ĠPo": 4424,
      "Ġhotel": 4425,
      "Ġec": 4426,
      "Ġatra": 4427,
      "Ġpoor": 4428,
      "Is": 4429,
      "uraÃ§Ã£o": 4430,
      "Ġsolic": 4431,
      "Ġconform": 4432,
      "Ġestilo": 4433,
      "Ġcolabor": 4434,
      "sc": 4435,
      "Ġple": 4436,
      "och": 4437,
      "Ġfech": 4438,
      "Ġoficial": 4439,
      "Ġtravel": 4440,
      "Ġobter": 4441,
      "Ġcivil": 4442,
      "hood": 4443,
      "Ġ2019": 4444,
      "SP": 4445,
      "via": 4446,
      "Ġthreat": 4447,
      "ĠMais": 4448,
      "Ġevents": 4449,
      "ĠIN": 4450,
      "Ġsurv": 4451,
      "Ġcompra": 4452,
      "volver": 4453,
      "Ã¡st": 4454,
      "Ġdecor": 4455,
      "ĠresponsÃ¡vel": 4456,
      "ertas": 4457,
      "ĠAfter": 4458,
      "las": 4459,
      "Ġmac": 4460,
      "Ġparcer": 4461,
      "Ġsafe": 4462,
      "Ġimpr": 4463,
      "Ġsess": 4464,
      "Ġscientists": 4465,
      "ester": 4466,
      "ĠDa": 4467,
      "ĠDav": 4468,
      "Ġtry": 4469,
      "Ġdemand": 4470,
      "Ġmedia": 4471,
      "ĠBritish": 4472,
      "yed": 4473,
      "ĠMac": 4474,
      "vert": 4475,
      "gur": 4476,
      "hop": 4477,
      "Ġissue": 4478,
      "Ġmeaning": 4479,
      "Ġexerc": 4480,
      "Ġprevious": 4481,
      "ĠState": 4482,
      "Ã¢mara": 4483,
      "Ġestiver": 4484,
      "view": 4485,
      "wor": 4486,
      "Ġhon": 4487,
      "Ġstructure": 4488,
      "But": 4489,
      "rim": 4490,
      "ĠMor": 4491,
      "like": 4492,
      "Ġtrue": 4493,
      "Ġ2017": 4494,
      "eu": 4495,
      "Ġalto": 4496,
      "Ġthing": 4497,
      "Ġperd": 4498,
      "Ġinternational": 4499,
      "obre": 4500,
      "Ġ--": 4501,
      "Ġpossa": 4502,
      "Ġdestac": 4503,
      "Ġaer": 4504,
      "aval": 4505,
      "Ġmarketing": 4506,
      "ivamente": 4507,
      "Ġbring": 4508,
      "istics": 4509,
      "Ġimagens": 4510,
      "Ġdeep": 4511,
      "iting": 4512,
      "olesc": 4513,
      "ĠMy": 4514,
      "Ġescolha": 4515,
      "una": 4516,
      "ĠCenter": 4517,
      "ming": 4518,
      "alu": 4519,
      "ĠHis": 4520,
      "jar": 4521,
      "aster": 4522,
      "curso": 4523,
      "Ġcrescimento": 4524,
      "ĠdisponÃŃveis": 4525,
      "ĠJosÃ©": 4526,
      "icles": 4527,
      "Ġdoing": 4528,
      "ĠforÃ§a": 4529,
      "Ġclose": 4530,
      "Ġhelps": 4531,
      "ĠirÃ¡": 4532,
      "iser": 4533,
      "ision": 4534,
      "Ġwild": 4535,
      "ĠEla": 4536,
      "ĠJaneiro": 4537,
      "vista": 4538,
      "ĠPed": 4539,
      "Ġeye": 4540,
      "Ġshown": 4541,
      "Ġaccept": 4542,
      "Ġprojetos": 4543,
      "Ġcort": 4544,
      "Ġacima": 4545,
      "Ġmethods": 4546,
      "Ġsejam": 4547,
      "Ġjunto": 4548,
      "ĠWindows": 4549,
      "Ġfuturo": 4550,
      "Ne": 4551,
      "ulos": 4552,
      "ĠeducaÃ§Ã£o": 4553,
      "Ġled": 4554,
      "Ġmanifest": 4555,
      "Ġgrowing": 4556,
      "Ġdescon": 4557,
      "uÃ§Ãµes": 4558,
      "rate": 4559,
      "Ġrob": 4560,
      "ĠMunicipal": 4561,
      "oud": 4562,
      "Ġtelef": 4563,
      "Ġsi": 4564,
      "Ġclaim": 4565,
      "Ġgreater": 4566,
      "Ġpolicy": 4567,
      "Ġdemais": 4568,
      "Ġuses": 4569,
      "Ġcaminho": 4570,
      "ĠnegÃ³cios": 4571,
      "Ġlei": 4572,
      "Ġ80": 4573,
      "Ã¡ss": 4574,
      "Ġideia": 4575,
      "ĠmÃ¡xim": 4576,
      "rÃ¡": 4577,
      "ĠHer": 4578,
      "Ġrespeito": 4579,
      "Ġsetor": 4580,
      "Ġsleep": 4581,
      "Ġcerto": 4582,
      "Ġvirus": 4583,
      "Ġprovided": 4584,
      "Ã¼": 4585,
      "idad": 4586,
      "Ġchance": 4587,
      "eration": 4588,
      "Ġsof": 4589,
      "Ġbreak": 4590,
      "play": 4591,
      "light": 4592,
      "Ġforte": 4593,
      "ĠRuss": 4594,
      "Ġdiab": 4595,
      "Ã©rias": 4596,
      "Im": 4597,
      "Ġoutside": 4598,
      "Ġsignifica": 4599,
      "aving": 4600,
      "Ġvideo": 4601,
      "cipl": 4602,
      "Ġevitar": 4603,
      "oth": 4604,
      "Ġtor": 4605,
      "Ġwal": 4606,
      "Ġmatter": 4607,
      "ĠSm": 4608,
      "ĠMod": 4609,
      "Ġplataforma": 4610,
      "Ġsafet": 4611,
      "Ġsafety": 4612,
      "Ġentender": 4613,
      "Ġgain": 4614,
      "ĠmanhÃ£": 4615,
      "Ġshare": 4616,
      "Ġimportantes": 4617,
      "Ġcalcul": 4618,
      "Ġtit": 4619,
      "ĠformaÃ§Ã£o": 4620,
      "feitos": 4621,
      "Ġmath": 4622,
      "Ġseem": 4623,
      "Ġcomplete": 4624,
      "Ġcorrect": 4625,
      "Ġ2014": 4626,
      "ubro": 4627,
      "ificado": 4628,
      "ĠComm": 4629,
      "Ġtarg": 4630,
      "Ġheav": 4631,
      "ĠVir": 4632,
      "ĠÃ©poca": 4633,
      "antas": 4634,
      "Ġpatient": 4635,
      "ĠalguÃ©m": 4636,
      "ump": 4637,
      "Ġsustain": 4638,
      "Ġsuffer": 4639,
      "rando": 4640,
      "Ġsmo": 4641,
      "Ġgard": 4642,
      "Ġvou": 4643,
      "Ġvest": 4644,
      "ĠMost": 4645,
      "ĠÃºltimos": 4646,
      "Cont": 4647,
      "Ġenfr": 4648,
      "Ġlivre": 4649,
      "Ġdiseases": 4650,
      "Ġresponse": 4651,
      "Ġrepro": 4652,
      "Ġselect": 4653,
      "vez": 4654,
      "Ġtema": 4655,
      "ĠTur": 4656,
      "Ġsometimes": 4657,
      "Ġpict": 4658,
      "Ġaverage": 4659,
      "ĠnegÃ³cio": 4660,
      "Ġcentro": 4661,
      "Ġwebsite": 4662,
      "Ġescola": 4663,
      "Ġrecomend": 4664,
      "empt": 4665,
      "ĠBro": 4666,
      "Ġmechan": 4667,
      "ĠJoÃ£o": 4668,
      "Ġtraditional": 4669,
      "ĠÃºnica": 4670,
      "ĠFacebook": 4671,
      "Ã³vel": 4672,
      "Ġfeita": 4673,
      "ĠSanta": 4674,
      "DA": 4675,
      "Ġconfer": 4676,
      "riz": 4677,
      "Ġpoll": 4678,
      "ĠWeb": 4679,
      "Ġcad": 4680,
      "ĠMaria": 4681,
      "name": 4682,
      "iction": 4683,
      "Ġgame": 4684,
      "Ġ2008": 4685,
      "Pre": 4686,
      "jos": 4687,
      "Ġ90": 4688,
      "Ġfazem": 4689,
      "Ġanti": 4690,
      "Ġpand": 4691,
      "ĠMore": 4692,
      "Ġestou": 4693,
      "Ġkids": 4694,
      "27": 4695,
      "Ġbur": 4696,
      "ĠpresenÃ§a": 4697,
      "ĠHol": 4698,
      "ief": 4699,
      "ĠKe": 4700,
      "Ġstrength": 4701,
      "ĠYour": 4702,
      "Ġincluindo": 4703,
      "acto": 4704,
      "Ġestudo": 4705,
      "26": 4706,
      "Ġsolar": 4707,
      "Ġexplic": 4708,
      "ĠediÃ§Ã£o": 4709,
      "Ã©is": 4710,
      "atives": 4711,
      "Ġbelieve": 4712,
      "Ġculture": 4713,
      "Ġpage": 4714,
      "Ġrespond": 4715,
      "Ã©dito": 4716,
      "ĠcomeÃ§ar": 4717,
      "Ġgast": 4718,
      "ocol": 4719,
      "Ġcomunidade": 4720,
      "yes": 4721,
      "ĠmÃ£o": 4722,
      "ector": 4723,
      "Ġobra": 4724,
      "Ġsexual": 4725,
      "Ġsomente": 4726,
      "Ġdou": 4727,
      "des": 4728,
      "Ġtipos": 4729,
      "room": 4730,
      "Ġsaud": 4731,
      "iques": 4732,
      "Ġpratic": 4733,
      "atively": 4734,
      "Ġpadr": 4735,
      "ĠScience": 4736,
      "ĠHot": 4737,
      "col": 4738,
      "rosoft": 4739,
      "Ġdeveloping": 4740,
      "Ġparticularly": 4741,
      "Ã©ria": 4742,
      "ugust": 4743,
      "cimento": 4744,
      "Ġmusic": 4745,
      "Ġacredit": 4746,
      "Ġlove": 4747,
      "uch": 4748,
      "Ġâ": 4749,
      "Ġinov": 4750,
      "ength": 4751,
      "Ġpoderia": 4752,
      "ka": 4753,
      "Ġaumento": 4754,
      "MA": 4755,
      "Quando": 4756,
      "Res": 4757,
      "back": 4758,
      "Ġsurg": 4759,
      "Ġgetting": 4760,
      "Ġpai": 4761,
      "onom": 4762,
      "Ġanunci": 4763,
      "Ġvenda": 4764,
      "Este": 4765,
      "ĠJÃ¡": 4766,
      "Ġdoesn": 4767,
      "Ġdesempen": 4768,
      "ales": 4769,
      "nov": 4770,
      "Ġsources": 4771,
      "Ġhip": 4772,
      "ĠdifÃŃcil": 4773,
      "Ġ70": 4774,
      "Ġideas": 4775,
      "Ġviagem": 4776,
      "ĠAustral": 4777,
      "Ġsimply": 4778,
      "ĠatrÃ¡s": 4779,
      "Ġ196": 4780,
      "adoras": 4781,
      "99": 4782,
      "ĠPra": 4783,
      "iado": 4784,
      "ĠWas": 4785,
      "Â°": 4786,
      "aces": 4787,
      "know": 4788,
      "Ġpath": 4789,
      "ĠServ": 4790,
      "Ġmovement": 4791,
      "Ġsexta": 4792,
      "ĠcomunicaÃ§Ã£o": 4793,
      "ĠÃºnico": 4794,
      "Ġrevol": 4795,
      "Ġago": 4796,
      "Ġnenhum": 4797,
      "zer": 4798,
      "inado": 4799,
      "ĠCalif": 4800,
      "Ġserem": 4801,
      "fa": 4802,
      "ĠDO": 4803,
      "Ã´nus": 4804,
      "pÃ§Ã£o": 4805,
      "ĠSou": 4806,
      "ĠSch": 4807,
      "ĠHom": 4808,
      "Ġ2022": 4809,
      "atas": 4810,
      "ianÃ§a": 4811,
      "Ġaproxim": 4812,
      "aking": 4813,
      "att": 4814,
      "Ġdeu": 4815,
      "Ġapostas": 4816,
      "Ġlooking": 4817,
      "Ġuns": 4818,
      "Ġfront": 4819,
      "Ġinvolved": 4820,
      "Ġcontem": 4821,
      "Ġattention": 4822,
      "ĠCivil": 4823,
      "Ġkm": 4824,
      "aling": 4825,
      "Ġforms": 4826,
      "Ġvivo": 4827,
      "Ġelectric": 4828,
      "Ġsomeone": 4829,
      "Ġloja": 4830,
      "Ġcoun": 4831,
      "Ġcores": 4832,
      "Ġexistem": 4833,
      "Ġdraw": 4834,
      "Ġconven": 4835,
      "uto": 4836,
      "teza": 4837,
      "emat": 4838,
      "ift": 4839,
      "icional": 4840,
      "Ġbaix": 4841,
      "itter": 4842,
      "----": 4843,
      "uar": 4844,
      "Ġpositive": 4845,
      "Ġallows": 4846,
      "____": 4847,
      "Ġraz": 4848,
      "mento": 4849,
      "ads": 4850,
      "Ġperspect": 4851,
      "enced": 4852,
      "ĠChar": 4853,
      "inary": 4854,
      "ĠanÃ¡lise": 4855,
      "Ġteachers": 4856,
      "ellow": 4857,
      "ĠparticipaÃ§Ã£o": 4858,
      "ĠJapan": 4859,
      "rus": 4860,
      "ountain": 4861,
      "Ġcirc": 4862,
      "sp": 4863,
      "Ġafirmou": 4864,
      "Ġdoctor": 4865,
      "Ġparece": 4866,
      "pring": 4867,
      "itions": 4868,
      "iaÃ§Ãµes": 4869,
      "Ã³sito": 4870,
      "enhor": 4871,
      "ĠAng": 4872,
      "Ġsch": 4873,
      "Ġhost": 4874,
      "Ġlocais": 4875,
      "Ġtaman": 4876,
      "Ġfutebol": 4877,
      "ĠIr": 4878,
      "Ġcapaz": 4879,
      "Ġconstitu": 4880,
      "ĠAssim": 4881,
      "Ġorg": 4882,
      "ĠorganizaÃ§Ã£o": 4883,
      "ÃĩÃĥO": 4884,
      "Ġsexo": 4885,
      "Ġserious": 4886,
      "ĠApr": 4887,
      "Ġdeliver": 4888,
      "Ġpasso": 4889,
      "Ġhomens": 4890,
      "ĠMinistÃ©rio": 4891,
      "Ġcou": 4892,
      "Ġsan": 4893,
      "ĠCentro": 4894,
      "Ġdemoc": 4895,
      "Ġtendo": 4896,
      "cles": 4897,
      "Ġtable": 4898,
      "erican": 4899,
      "izes": 4900,
      "Ġvolume": 4901,
      "Ã³digo": 4902,
      "Ġdificul": 4903,
      "idar": 4904,
      "Ġoferec": 4905,
      "One": 4906,
      "Ġtools": 4907,
      "ĠIsrael": 4908,
      "Ġbrasileiro": 4909,
      "Ġgal": 4910,
      "Ġconjunto": 4911,
      "oder": 4912,
      "Ġsatisf": 4913,
      "entas": 4914,
      "Ġtin": 4915,
      "acher": 4916,
      "ĠÃŃ": 4917,
      "Ġisol": 4918,
      "ĠPorto": 4919,
      "Ã£s": 4920,
      "Ġsearch": 4921,
      "Ġ2016": 4922,
      "Ġexperim": 4923,
      "Ġremo": 4924,
      "eca": 4925,
      "Ġaccom": 4926,
      "ĠNova": 4927,
      "Ġinic": 4928,
      "ster": 4929,
      "point": 4930,
      "Ġ2015": 4931,
      "Ġprostitut": 4932,
      "den": 4933,
      "eding": 4934,
      "And": 4935,
      "uff": 4936,
      "Ġvant": 4937,
      "Ġ#": 4938,
      "Ġwritten": 4939,
      "Ġestre": 4940,
      "Ġappl": 4941,
      "ĠpÃºblica": 4942,
      "Ġreported": 4943,
      "Ġagrad": 4944,
      "Ġofficial": 4945,
      "ĠSw": 4946,
      "ertura": 4947,
      "ĠMany": 4948,
      "Ġadditional": 4949,
      "Ġdetermine": 4950,
      "ĠInt": 4951,
      "Ġslow": 4952,
      "ĠSam": 4953,
      "ĠLond": 4954,
      "Ġatividade": 4955,
      "Ġnutri": 4956,
      "Ġdimin": 4957,
      "onta": 4958,
      "ĠMus": 4959,
      "ĠGrande": 4960,
      "Ġcorresp": 4961,
      "29": 4962,
      "Ġmel": 4963,
      "Ġband": 4964,
      "Ġwaste": 4965,
      "gras": 4966,
      "Ġful": 4967,
      "Ġdaily": 4968,
      "Ġconfig": 4969,
      "Ġpergunt": 4970,
      "70": 4971,
      "ÃŃdo": 4972,
      "Ġaplicativo": 4973,
      "ecause": 4974,
      "ĠAcom": 4975,
      "Out": 4976,
      "irl": 4977,
      "Ġcoz": 4978,
      "Ġcommunities": 4979,
      "izing": 4980,
      "Ġtrein": 4981,
      "Ġwall": 4982,
      "inguÃ©m": 4983,
      "Ġterrit": 4984,
      "gens": 4985,
      "irma": 4986,
      "Ġrecuper": 4987,
      "Ġfeet": 4988,
      "ĠTod": 4989,
      "ports": 4990,
      "Ġconsci": 4991,
      "Ġeasily": 4992,
      "Ġdirectly": 4993,
      "Ġdang": 4994,
      "asons": 4995,
      "ĠLat": 4996,
      "Ġinside": 4997,
      "Ġearth": 4998,
      "esis": 4999,
      "Ġpil": 5000,
      "Ġefet": 5001,
      "Ġlate": 5002,
      "Ġproporcion": 5003,
      "gest": 5004,
      "Ġquad": 5005,
      "Ġarch": 5006,
      "Ġindustrial": 5007,
      "Ġrealidade": 5008,
      "Ġfunct": 5009,
      "enciais": 5010,
      "Ġconstant": 5011,
      "Ġwind": 5012,
      "orpor": 5013,
      "Ġinterior": 5014,
      "Ãºblica": 5015,
      "ruction": 5016,
      "Ġ194": 5017,
      "Ġocorre": 5018,
      "Ġensino": 5019,
      "Un": 5020,
      "Ġ29": 5021,
      "Ġinstead": 5022,
      "uck": 5023,
      "Ġgreen": 5024,
      "Ġusando": 5025,
      "Ã³veis": 5026,
      "Ġjur": 5027,
      "Ġirm": 5028,
      "ĠCrist": 5029,
      "ĠMag": 5030,
      "Ġmedida": 5031,
      "lands": 5032,
      "Ġfase": 5033,
      "ĠpreÃ§os": 5034,
      "ĠcriaÃ§Ã£o": 5035,
      "Ġnumbers": 5036,
      "roid": 5037,
      "Ġemot": 5038,
      "Ã¢ne": 5039,
      "Ġtakes": 5040,
      "Ġdisposit": 5041,
      "Ġpun": 5042,
      "Ġproduced": 5043,
      "ĠeconÃ´m": 5044,
      "ĠcomeÃ§ou": 5045,
      "Ġisto": 5046,
      "Ġsugar": 5047,
      "esar": 5048,
      "ividade": 5049,
      "Ġguard": 5050,
      "Ġdetalhes": 5051,
      "Ġwood": 5052,
      "ĠsÃ¡b": 5053,
      "ĠSup": 5054,
      "ĠEntÃ£o": 5055,
      "ĠmÃŃn": 5056,
      "Ġestrutura": 5057,
      "Ġpossibil": 5058,
      "Ġquickly": 5059,
      "oming": 5060,
      "Ġsold": 5061,
      "Ġdecre": 5062,
      "ged": 5063,
      "Ġgenerally": 5064,
      "Ġimpress": 5065,
      "Ġhumans": 5066,
      "Ġ2023": 5067,
      "Ġcul": 5068,
      "eced": 5069,
      "ĠUnidos": 5070,
      "Ġreflect": 5071,
      "Ġunique": 5072,
      "Ġmultiple": 5073,
      "Ġcorpor": 5074,
      "arily": 5075,
      "Ġmostra": 5076,
      "Ġclin": 5077,
      "Ġconseguir": 5078,
      "Ġstay": 5079,
      "Ġleaders": 5080,
      "icamente": 5081,
      "rench": 5082,
      "Ġdeput": 5083,
      "idge": 5084,
      "Ġpasse": 5085,
      "Ġcolet": 5086,
      "Ġprobably": 5087,
      "28": 5088,
      "Ġplano": 5089,
      "ĠprÃ³xima": 5090,
      "lin": 5091,
      "Ġress": 5092,
      "Ġdry": 5093,
      "ĠAra": 5094,
      "eias": 5095,
      "Ġoferecer": 5096,
      "Ġacontece": 5097,
      "ĠsoluÃ§Ã£o": 5098,
      "Ġinfection": 5099,
      "Ġquarta": 5100,
      "Ġcelular": 5101,
      "Ġanterior": 5102,
      "35": 5103,
      "rados": 5104,
      "Ġanaly": 5105,
      "ĠInstitute": 5106,
      "pas": 5107,
      "ĠFre": 5108,
      "Ġtermin": 5109,
      "Ġsupply": 5110,
      "Ġattempt": 5111,
      "Ġidade": 5112,
      "Ġgol": 5113,
      "Ġprimary": 5114,
      "Ġscientific": 5115,
      "Ġargum": 5116,
      "ĠvocÃªs": 5117,
      "Ġcustom": 5118,
      "iot": 5119,
      "uas": 5120,
      "Ġforce": 5121,
      "feitura": 5122,
      "where": 5123,
      "Ġnight": 5124,
      "Ġorigin": 5125,
      "Ġstarted": 5126,
      "ĠInternational": 5127,
      "Ġadolesc": 5128,
      "atar": 5129,
      "elos": 5130,
      "Ã©tr": 5131,
      "Ġvacc": 5132,
      "atamente": 5133,
      "Ġmotiv": 5134,
      "ĠPC": 5135,
      "Ġsecurity": 5136,
      "Ġcolocar": 5137,
      "ĠaÃŃ": 5138,
      "rican": 5139,
      "ĠEss": 5140,
      "ĠmÃ¡qu": 5141,
      "ÃŃdu": 5142,
      "Ġtown": 5143,
      "Ġquite": 5144,
      "Ġfinancial": 5145,
      "war": 5146,
      "Ġperder": 5147,
      "Ġintens": 5148,
      "Ġtrees": 5149,
      "Ġchegou": 5150,
      "come": 5151,
      "Ġconclus": 5152,
      "Ġwarm": 5153,
      "uted": 5154,
      "iscal": 5155,
      "ulaÃ§Ã£o": 5156,
      "Ġcumpr": 5157,
      "part": 5158,
      "Ġcerteza": 5159,
      "Ġdownload": 5160,
      "Ġcen": 5161,
      "Ġguid": 5162,
      "Ġaumentar": 5163,
      "ÃŃpios": 5164,
      "onal": 5165,
      "Ġluz": 5166,
      "Ġsea": 5167,
      "Ġbehind": 5168,
      "Ġeram": 5169,
      "Ġtree": 5170,
      "ĠInf": 5171,
      "ĠJustiÃ§a": 5172,
      "Ġinterpret": 5173,
      "Ġvul": 5174,
      "olic": 5175,
      "Ġcompanies": 5176,
      "Ġmeus": 5177,
      "Ġaprend": 5178,
      "Ġparceria": 5179,
      "duz": 5180,
      "vey": 5181,
      "ĠSan": 5182,
      "ĠDia": 5183,
      "ĠLei": 5184,
      "Ġvalores": 5185,
      "Ġexpand": 5186,
      "ris": 5187,
      "ĠBlack": 5188,
      "Ġidentify": 5189,
      "ĠmÃ©dico": 5190,
      "Ġquantidade": 5191,
      "Ġtran": 5192,
      "Ġenter": 5193,
      "Ġcomplic": 5194,
      "ĠSen": 5195,
      "Ġtermos": 5196,
      "Ġcommit": 5197,
      "Ġcampanha": 5198,
      "Ġincluded": 5199,
      "Ġdicas": 5200,
      "Ġuseful": 5201,
      "ĠPark": 5202,
      "Ġadded": 5203,
      "Ġproposta": 5204,
      "Ġsair": 5205,
      "Ġtornar": 5206,
      "itation": 5207,
      "ĠavanÃ§": 5208,
      "Ġmess": 5209,
      "Ġlack": 5210,
      "ÃŃg": 5211,
      "ituto": 5212,
      "ĠCount": 5213,
      "Ġeventos": 5214,
      "ĠUniversidade": 5215,
      "ĠespecÃŃf": 5216,
      "rated": 5217,
      "Ã£es": 5218,
      "ibiliz": 5219,
      "Ġencontra": 5220,
      "Ġvoc": 5221,
      "ĠAlex": 5222,
      "Ġcomport": 5223,
      "ĠbenefÃŃcios": 5224,
      "Ġri": 5225,
      "Ġradi": 5226,
      "Ġevalu": 5227,
      "ĠAugust": 5228,
      "nos": 5229,
      "Ġflex": 5230,
      "Ġhands": 5231,
      "term": 5232,
      "adeira": 5233,
      "Ġprem": 5234,
      "ĠCÃ¢mara": 5235,
      "example": 5236,
      "Ġmostrar": 5237,
      "Ġmorte": 5238,
      "Ġpalavras": 5239,
      "OT": 5240,
      "Ġnucle": 5241,
      "Ġcient": 5242,
      "estre": 5243,
      "ÃŃstica": 5244,
      "omb": 5245,
      "Ġocup": 5246,
      "grad": 5247,
      "Ġnecessidades": 5248,
      "Ġcelebr": 5249,
      "rary": 5250,
      "Ġaim": 5251,
      "ostos": 5252,
      "ĠFlor": 5253,
      "Ġfoto": 5254,
      "Ġanswer": 5255,
      "aff": 5256,
      "Ġresposta": 5257,
      "uth": 5258,
      "ĠNet": 5259,
      "ionally": 5260,
      "ĠMc": 5261,
      "ĠporÃ©m": 5262,
      "ĠsÃ©": 5263,
      "Ġbaixo": 5264,
      "Ġfilhos": 5265,
      "ĠEuropean": 5266,
      "ĠTrib": 5267,
      "ya": 5268,
      "ypt": 5269,
      "Ġperto": 5270,
      "Ġroup": 5271,
      "ĠEducaÃ§Ã£o": 5272,
      "ĠPaul": 5273,
      "Ġang": 5274,
      "Ġesfor": 5275,
      "Ġappropri": 5276,
      "Ġbooks": 5277,
      "rap": 5278,
      "ĠTambÃ©m": 5279,
      "ops": 5280,
      "xic": 5281,
      "che": 5282,
      "Ġquinta": 5283,
      "ĠPet": 5284,
      "oÃ§Ã£o": 5285,
      "Ġpossibilidade": 5286,
      "Ġpul": 5287,
      "Ġbad": 5288,
      "Ġvig": 5289,
      "Ġreview": 5290,
      "ardo": 5291,
      "Ġmol": 5292,
      "htt": 5293,
      "Ġwide": 5294,
      "Ġcompared": 5295,
      "Ġenjo": 5296,
      "MS": 5297,
      "Ġfit": 5298,
      "ĠCult": 5299,
      "ĠOf": 5300,
      "Ġgoal": 5301,
      "Ġtheory": 5302,
      "Ġdifference": 5303,
      "Ã©rica": 5304,
      "Ġexcess": 5305,
      "Ġpassa": 5306,
      "Ġjovens": 5307,
      "haps": 5308,
      "ography": 5309,
      "Ġnote": 5310,
      "gresso": 5311,
      "Segundo": 5312,
      "Ġabsor": 5313,
      "ĠcabeÃ§a": 5314,
      "ĠCity": 5315,
      "ossa": 5316,
      "ĠIS": 5317,
      "Ġdevices": 5318,
      "rad": 5319,
      "Ġfoot": 5320,
      "05": 5321,
      "cup": 5322,
      "ects": 5323,
      "Ġprotein": 5324,
      "Ġprostitutas": 5325,
      "AB": 5326,
      "itis": 5327,
      "Ġprinci": 5328,
      "ĠTech": 5329,
      "Ġserve": 5330,
      "Ġtab": 5331,
      "Des": 5332,
      "Ġrom": 5333,
      "eks": 5334,
      "Ġpreserv": 5335,
      "Ġinclusive": 5336,
      "hington": 5337,
      "ĠlÃŃder": 5338,
      "hou": 5339,
      "Ġhighly": 5340,
      "Ġexercise": 5341,
      "Ġmovimento": 5342,
      "Ġdelic": 5343,
      "Ġgot": 5344,
      "Ġnovel": 5345,
      "Ġpoints": 5346,
      "Ġfemin": 5347,
      "Ġarte": 5348,
      "astro": 5349,
      "ĠFer": 5350,
      "ĠLeg": 5351,
      "Ġinternacional": 5352,
      "Ġdomingo": 5353,
      "Ġestes": 5354,
      "Ġseries": 5355,
      "ĠOrgan": 5356,
      "UN": 5357,
      "ĠfunÃ§Ã£o": 5358,
      "Ġpensar": 5359,
      "UL": 5360,
      "Ġassunto": 5361,
      "Man": 5362,
      "orar": 5363,
      "uem": 5364,
      "ĠEv": 5365,
      "ĠDepois": 5366,
      "Ġjogador": 5367,
      "ĠalcanÃ§": 5368,
      "ĠRod": 5369,
      "Ġaqueles": 5370,
      "ĠCD": 5371,
      "Ġmetal": 5372,
      "Ġaquele": 5373,
      "itando": 5374,
      "umin": 5375,
      "Ġpassou": 5376,
      "Ġdiabetes": 5377,
      "Ġtherefore": 5378,
      "ĠMal": 5379,
      "Ġmag": 5380,
      "Ġworkers": 5381,
      "Ġestablished": 5382,
      "ott": 5383,
      "Ġcritical": 5384,
      "06": 5385,
      "Ġnave": 5386,
      "ges": 5387,
      "Ġapplication": 5388,
      "Ġsint": 5389,
      "Ġdim": 5390,
      "Ġmig": 5391,
      "ĠcoraÃ§Ã£o": 5392,
      "erva": 5393,
      "Ġtemporada": 5394,
      "Ã©st": 5395,
      "ĠDan": 5396,
      "ĠDay": 5397,
      "Ġprotection": 5398,
      "ĠBel": 5399,
      "undred": 5400,
      "Ġmedidas": 5401,
      "Ġsustent": 5402,
      "Ġwrite": 5403,
      "iers": 5404,
      "Ġmelhorar": 5405,
      "ĠEles": 5406,
      "ĠEcon": 5407,
      "ficos": 5408,
      "Ġminutes": 5409,
      "ĠMart": 5410,
      "Ġimmedi": 5411,
      "ĠmunicÃŃpio": 5412,
      "Ġfest": 5413,
      "ĠRel": 5414,
      "Ġlarger": 5415,
      "Car": 5416,
      "Ġtiss": 5417,
      "Ġleaves": 5418,
      "Ġcross": 5419,
      "water": 5420,
      "Ġeta": 5421,
      "Ġcomercial": 5422,
      "Ġnetwork": 5423,
      "ĠDist": 5424,
      "Ġcro": 5425,
      "ĠVol": 5426,
      "ÃŃtica": 5427,
      "range": 5428,
      "Ġcosts": 5429,
      "Ġbirth": 5430,
      "Ġpedido": 5431,
      "Ġdesempenho": 5432,
      "Ġatmos": 5433,
      "Ġseguinte": 5434,
      "orado": 5435,
      "Ġthous": 5436,
      "ogos": 5437,
      "ole": 5438,
      "icans": 5439,
      "enham": 5440,
      "imentaÃ§Ã£o": 5441,
      "Ġpovo": 5442,
      "Ġcic": 5443,
      "ĠRiver": 5444,
      "udes": 5445,
      "iews": 5446,
      "Ġexact": 5447,
      "ornia": 5448,
      "pon": 5449,
      "ĠcartÃ£o": 5450,
      "Ġterra": 5451,
      "radas": 5452,
      "ties": 5453,
      "Ġthus": 5454,
      "Ġalco": 5455,
      "Ġsoon": 5456,
      "Ġactive": 5457,
      "Ġacontecer": 5458,
      "ĠBi": 5459,
      "Ġju": 5460,
      "He": 5461,
      "ym": 5462,
      "ulta": 5463,
      "Ao": 5464,
      "ĠmÃ£os": 5465,
      "ĠcrianÃ§a": 5466,
      "Ġprocessos": 5467,
      "ĠAssoci": 5468,
      "ĠOnline": 5469,
      "ĠSilva": 5470,
      "ĠTw": 5471,
      "Ġtool": 5472,
      "Ġluc": 5473,
      "coin": 5474,
      "Ġfamilies": 5475,
      "Ġvendas": 5476,
      "36": 5477,
      "Ag": 5478,
      "ĠBas": 5479,
      "Ġapplications": 5480,
      "jamento": 5481,
      "Ġrequires": 5482,
      "Ġaux": 5483,
      "adual": 5484,
      "Ġhou": 5485,
      "Ġseason": 5486,
      "Ġsusp": 5487,
      "ĠBan": 5488,
      "ĠGar": 5489,
      "Ġveloc": 5490,
      "Ġrich": 5491,
      "ĠdoenÃ§a": 5492,
      "ĠFern": 5493,
      "isso": 5494,
      "Ġmaio": 5495,
      "Ġfilmes": 5496,
      "Ġhyd": 5497,
      "ancy": 5498,
      "Ġdepos": 5499,
      "uries": 5500,
      "Ġcold": 5501,
      "bi": 5502,
      "Ġnation": 5503,
      "Ġassin": 5504,
      "Ġtransmit": 5505,
      "Ġmilitary": 5506,
      "ĠUse": 5507,
      "Ġadicion": 5508,
      "Ġdefic": 5509,
      "Ġine": 5510,
      "Ġthird": 5511,
      "edia": 5512,
      "cie": 5513,
      "velmente": 5514,
      "ĠbÃ¡s": 5515,
      "Ġsmart": 5516,
      "Ġmill": 5517,
      "Ġporn": 5518,
      "Ġincr": 5519,
      "Ġoppos": 5520,
      "Ġfore": 5521,
      "ĠEg": 5522,
      "estic": 5523,
      "Ġrealizado": 5524,
      "Ġcontext": 5525,
      "Ġnatureza": 5526,
      "ania": 5527,
      "Ġbil": 5528,
      "idÃªncia": 5529,
      "ĠDef": 5530,
      "Ġfamos": 5531,
      "Ġmomentos": 5532,
      "rog": 5533,
      "ĠFrench": 5534,
      "Ġingred": 5535,
      "Ġlimited": 5536,
      "ĠmÃ©dia": 5537,
      "ĠCentral": 5538,
      "yond": 5539,
      "how": 5540,
      "Ġsala": 5541,
      "Ġapresentar": 5542,
      "ĠSantos": 5543,
      "ĠWilliam": 5544,
      "So": 5545,
      "Ġformas": 5546,
      "Ġmodelos": 5547,
      "ioso": 5548,
      "Ġtests": 5549,
      "Ġespecialmente": 5550,
      "Ġconhecido": 5551,
      "Ġeconomia": 5552,
      "ĠvÃŃdeos": 5553,
      "ĠMicrosoft": 5554,
      "Ġvirtual": 5555,
      "Ġpsych": 5556,
      "var": 5557,
      "vention": 5558,
      "Ġsqu": 5559,
      "ĠMuse": 5560,
      "ager": 5561,
      "ĠArm": 5562,
      "Ġreve": 5563,
      "Ġbeaut": 5564,
      "Ġfosse": 5565,
      "ĠMulheres": 5566,
      "'re": 5567,
      "Ġcast": 5568,
      "Ġleading": 5569,
      "ĠFrancis": 5570,
      "orias": 5571,
      "Ġburn": 5572,
      "ĠDi": 5573,
      "Ġinteresse": 5574,
      "ields": 5575,
      "Ġbroad": 5576,
      "ĠDepartment": 5577,
      "DF": 5578,
      "ĠMat": 5579,
      "Ġfeatures": 5580,
      "Ġincorpor": 5581,
      "ĠQual": 5582,
      "Ġapresenta": 5583,
      "Ġign": 5584,
      "Ġcot": 5585,
      "ille": 5586,
      "Ġessay": 5587,
      "Ġ2007": 5588,
      "ĠFoi": 5589,
      "Ġveh": 5590,
      "QU": 5591,
      "Ġimages": 5592,
      "Pr": 5593,
      "Ġseis": 5594,
      "Ġtomar": 5595,
      "ĠEUA": 5596,
      "Mar": 5597,
      "Ġsection": 5598,
      "oper": 5599,
      "Ġsummer": 5600,
      "Ġtarget": 5601,
      "Ġseems": 5602,
      "Ġcrime": 5603,
      "Ġheld": 5604,
      "ĠpeÃ§as": 5605,
      "Ġsyn": 5606,
      "Ġbrasileira": 5607,
      "Ġparce": 5608,
      "ducing": 5609,
      "Ġtotalmente": 5610,
      "Ġbeginning": 5611,
      "Ġjunho": 5612,
      "Ġsn": 5613,
      "ĠbÃ´nus": 5614,
      "Ã©dio": 5615,
      "Ġbacteria": 5616,
      "Do": 5617,
      "reet": 5618,
      "odies": 5619,
      "Ġboas": 5620,
      "pesar": 5621,
      "Ġfunciona": 5622,
      "CE": 5623,
      "rome": 5624,
      "ander": 5625,
      "Ġabsol": 5626,
      "ĠcrÃ©dito": 5627,
      "dades": 5628,
      "Ġcara": 5629,
      "Ġcenter": 5630,
      "ĠTrabal": 5631,
      "Ġestavam": 5632,
      "elhos": 5633,
      "Ġinstall": 5634,
      "Ġtowards": 5635,
      "Ġsistemas": 5636,
      "onia": 5637,
      "Ġeyes": 5638,
      "Ġparticipar": 5639,
      "pat": 5640,
      "Ġmis": 5641,
      "ĠFund": 5642,
      "Ġentrada": 5643,
      "Ġsort": 5644,
      "Ġencontro": 5645,
      "Ġjovem": 5646,
      "Ġtum": 5647,
      "Ġsei": 5648,
      "Ġcompleta": 5649,
      "ĠIndian": 5650,
      "ĠCasa": 5651,
      "ĠaplicaÃ§Ã£o": 5652,
      "Ġcusto": 5653,
      "ĠÃ³r": 5654,
      "Ġreb": 5655,
      "unal": 5656,
      "Ġattack": 5657,
      "Ġurban": 5658,
      "Ġpresc": 5659,
      "intes": 5660,
      "Ġepis": 5661,
      "Ġprojects": 5662,
      "ĠtÃ©cnica": 5663,
      "Ġcolon": 5664,
      "Ġagre": 5665,
      "ĠWashington": 5666,
      "04": 5667,
      "ĠAmaz": 5668,
      "ĠCalifornia": 5669,
      "ĠdÃ©c": 5670,
      "Ġcidades": 5671,
      "lim": 5672,
      "yal": 5673,
      "ĠhistÃ³r": 5674,
      "Ġenorm": 5675,
      "gues": 5676,
      "Ġinscri": 5677,
      "Ġnegative": 5678,
      "ini": 5679,
      "Ġpena": 5680,
      "Ġsuporte": 5681,
      "ĠDem": 5682,
      "OC": 5683,
      "esh": 5684,
      "aly": 5685,
      "01": 5686,
      "Ġalthough": 5687,
      "Ġpredict": 5688,
      "Ġmilitar": 5689,
      "Ġles": 5690,
      "ificados": 5691,
      "Ġaconteceu": 5692,
      "Ġfesta": 5693,
      "Ġvont": 5694,
      "Ġolhos": 5695,
      "Ġtypically": 5696,
      "Ġdistin": 5697,
      "Ġcontains": 5698,
      "Ġmemory": 5699,
      "Ġstri": 5700,
      "ĠOct": 5701,
      "Ġmole": 5702,
      "afÃ©": 5703,
      "Ġborn": 5704,
      "Ġdesl": 5705,
      "ĠSegundo": 5706,
      "itais": 5707,
      "ĠAfrica": 5708,
      "Ġcomprom": 5709,
      "Ġpros": 5710,
      "ĠprÃ³pri": 5711,
      "Ġdevice": 5712,
      "09": 5713,
      "gl": 5714,
      "Ġtentar": 5715,
      "Ġlands": 5716,
      "Ġelse": 5717,
      "Ġoverall": 5718,
      "Ġquarto": 5719,
      "ĠusuÃ¡rio": 5720,
      "Ġtechniques": 5721,
      "iat": 5722,
      "ript": 5723,
      "ĠMu": 5724,
      "Ġstru": 5725,
      "Ġseguro": 5726,
      "Ġtrade": 5727,
      "Ġimportance": 5728,
      "ĠPlan": 5729,
      "Be": 5730,
      "Ġwest": 5731,
      "ĠMarch": 5732,
      "Ġproperty": 5733,
      "UT": 5734,
      "Ġnessa": 5735,
      "Ġeth": 5736,
      "Ġsurround": 5737,
      "ĠCarlos": 5738,
      "Ġcreating": 5739,
      "urt": 5740,
      "ounds": 5741,
      "Ġlocated": 5742,
      "ĠmudanÃ§a": 5743,
      "ĠPolÃŃcia": 5744,
      "Ġhar": 5745,
      "Ġcarry": 5746,
      "Ġyourself": 5747,
      "Ġobras": 5748,
      "ergy": 5749,
      "cean": 5750,
      "Ã´nia": 5751,
      "ground": 5752,
      "Ġones": 5753,
      "Ġprivate": 5754,
      "ĠsÃ¡bado": 5755,
      "reme": 5756,
      "ĠLis": 5757,
      "Ġliqu": 5758,
      "Ġvalues": 5759,
      "Ġdela": 5760,
      "ĠCab": 5761,
      "Ġran": 5762,
      "Ġweeks": 5763,
      "Ġvale": 5764,
      "Ġimposs": 5765,
      "ĠquestÃµes": 5766,
      "Ġresponsabilidade": 5767,
      "Ġhundred": 5768,
      "ĠFirst": 5769,
      "Ġadvant": 5770,
      "Ġfear": 5771,
      "Ġfuel": 5772,
      "Ġstream": 5773,
      "ĠUN": 5774,
      "Ġteaching": 5775,
      "Ġancient": 5776,
      "Ġincent": 5777,
      "uv": 5778,
      "Ġsubs": 5779,
      "ĠRead": 5780,
      "ĠAir": 5781,
      "utenÃ§Ã£o": 5782,
      "iste": 5783,
      "ĠOur": 5784,
      "Ġsetembro": 5785,
      "Ġcabelo": 5786,
      "Ġfever": 5787,
      "Ġsofr": 5788,
      "UR": 5789,
      "iable": 5790,
      "Ġmenor": 5791,
      "ĠmudanÃ§as": 5792,
      "ĠEntre": 5793,
      "PR": 5794,
      "wise": 5795,
      "Ã©tica": 5796,
      "SA": 5797,
      "Ġimper": 5798,
      "Ġpromot": 5799,
      "Ġsituation": 5800,
      "Ġgrupos": 5801,
      "Ġinfer": 5802,
      "ĠNam": 5803,
      "Ġsolution": 5804,
      "Ġlargest": 5805,
      "Ġlost": 5806,
      "Ġmap": 5807,
      "Ġesport": 5808,
      "pet": 5809,
      "ĠProt": 5810,
      "Ġpotencial": 5811,
      "Ġata": 5812,
      "ously": 5813,
      "Ġcomputador": 5814,
      "tem": 5815,
      "Ġusado": 5816,
      "Ġcarreira": 5817,
      "Ġcommer": 5818,
      "Ġdirig": 5819,
      "DO": 5820,
      "ste": 5821,
      "45": 5822,
      "Ġ35": 5823,
      "Ġinfant": 5824,
      "Ġequipment": 5825,
      "Ġpurpose": 5826,
      "Ġtamanho": 5827,
      "ĠInform": 5828,
      "ellig": 5829,
      "Ġinfluence": 5830,
      "Ġwa": 5831,
      "ĠindÃºst": 5832,
      "ĠAlthough": 5833,
      "lor": 5834,
      "ĠdiferenÃ§a": 5835,
      "iso": 5836,
      "Ġsufic": 5837,
      "ĠterÃ§a": 5838,
      "Ġentrega": 5839,
      "itect": 5840,
      "Ġeletr": 5841,
      "Ġtorna": 5842,
      "By": 5843,
      "iled": 5844,
      "Ġproviding": 5845,
      "Ġmulti": 5846,
      "IP": 5847,
      "ĠninguÃ©m": 5848,
      "ĠFam": 5849,
      "Ġ2006": 5850,
      "ÃŃss": 5851,
      "Ġpagar": 5852,
      "ĠGal": 5853,
      "eder": 5854,
      "Ġhorm": 5855,
      "ĠBen": 5856,
      "Ġprocesses": 5857,
      "Ġcorrespond": 5858,
      "33": 5859,
      "Ġhid": 5860,
      "ĠFrom": 5861,
      "ĠMedic": 5862,
      "Ġbreat": 5863,
      "ĠSE": 5864,
      "ĠDig": 5865,
      "Ġwhose": 5866,
      "ĠLear": 5867,
      "Ġfilm": 5868,
      "uary": 5869,
      "Ġfast": 5870,
      "idez": 5871,
      "Ġadults": 5872,
      "Ġlength": 5873,
      "Ġseguida": 5874,
      "Ã©rcio": 5875,
      "leo": 5876,
      "erse": 5877,
      "Ġtesting": 5878,
      "Ġelectr": 5879,
      "ĠEsta": 5880,
      "ĠEssa": 5881,
      "Ġbol": 5882,
      "Ġrefor": 5883,
      "Ġobtain": 5884,
      "Ãį": 5885,
      "Ġthinking": 5886,
      "Ġembora": 5887,
      "Ġwent": 5888,
      "ĠChild": 5889,
      "encies": 5890,
      "onge": 5891,
      "Ġbul": 5892,
      "Ġbair": 5893,
      "quia": 5894,
      "Ġrates": 5895,
      "head": 5896,
      "Ġlines": 5897,
      "Ġdivert": 5898,
      "Ġblo": 5899,
      "Ġult": 5900,
      "ĠHere": 5901,
      "ĠproteÃ§Ã£o": 5902,
      "Ġaprender": 5903,
      "Af": 5904,
      "ilhar": 5905,
      "ĠAtl": 5906,
      "Ġfert": 5907,
      "Ġreceived": 5908,
      "Ġopportunity": 5909,
      "VID": 5910,
      "artamento": 5911,
      "Ġbecomes": 5912,
      "ĠCa": 5913,
      "ĠSur": 5914,
      "Ġemoc": 5915,
      "ĠJune": 5916,
      "Ġequipamentos": 5917,
      "Ġspeed": 5918,
      "Ġvontade": 5919,
      "Ġhair": 5920,
      "Ġroom": 5921,
      "akes": 5922,
      "Ġnearly": 5923,
      "Ġempreg": 5924,
      "lier": 5925,
      "unch": 5926,
      "ĠFin": 5927,
      "Ġtransporte": 5928,
      "Ġ2000": 5929,
      "Â»": 5930,
      "Ġinicial": 5931,
      "ceu": 5932,
      "peon": 5933,
      "ĠsoluÃ§Ãµes": 5934,
      "Ġnenhuma": 5935,
      "time": 5936,
      "ĠcaracterÃŃsticas": 5937,
      "Ġdesses": 5938,
      "Ġcontar": 5939,
      "Ġpractices": 5940,
      "ĠestratÃ©gia": 5941,
      "TA": 5942,
      "Ġchoose": 5943,
      "Ġdiretor": 5944,
      "kers": 5945,
      "Ġ31": 5946,
      "Ġsymb": 5947,
      "alidade": 5948,
      "Ġask": 5949,
      "ĠHen": 5950,
      "Ġfruit": 5951,
      "Ġrecommend": 5952,
      "Ġcode": 5953,
      "ĠBat": 5954,
      "Ġapre": 5955,
      "While": 5956,
      "Ġremember": 5957,
      "JÃ¡": 5958,
      "Ġlider": 5959,
      "ĠÃ¢": 5960,
      "Ġstatus": 5961,
      "Ġtaxa": 5962,
      "gree": 5963,
      "ii": 5964,
      "Ġaz": 5965,
      "ecido": 5966,
      "Ġrain": 5967,
      "Ġblock": 5968,
      "dos": 5969,
      "Ġclique": 5970,
      "ĠrÃ¡pido": 5971,
      "agram": 5972,
      "Ġchap": 5973,
      "Ġactual": 5974,
      "ĠGeneral": 5975,
      "Mais": 5976,
      "itado": 5977,
      "Ã´nio": 5978,
      "Ġanalis": 5979,
      "Ġsubstitu": 5980,
      "ĠAv": 5981,
      "atural": 5982,
      "Ġfight": 5983,
      "ee": 5984,
      "itution": 5985,
      "Ġfala": 5986,
      "ĠavaliaÃ§Ã£o": 5987,
      "Ġselecion": 5988,
      "Ġenh": 5989,
      "ĠAdminist": 5990,
      "Ġestablish": 5991,
      "ĠAfrican": 5992,
      "omin": 5993,
      "Ġbenefit": 5994,
      "Ġtold": 5995,
      "urb": 5996,
      "umo": 5997,
      "Ġlaws": 5998,
      "Ġremains": 5999,
      "isms": 6000,
      "These": 6001,
      "Pl": 6002,
      "With": 6003,
      "Ġarmaz": 6004,
      "abilidades": 6005,
      "Ġvulner": 6006,
      "cam": 6007,
      "aters": 6008,
      "Ġbott": 6009,
      "enge": 6010,
      "ĠAN": 6011,
      "ĠSP": 6012,
      "Ġreceive": 6013,
      "07": 6014,
      "Rec": 6015,
      "ĠpolÃŃticas": 6016,
      "Ġquiser": 6017,
      "Ġreasons": 6018,
      "utar": 6019,
      "Ġmachine": 6020,
      "ox": 6021,
      "Ġintelig": 6022,
      "Ġocorr": 6023,
      "Ġconvid": 6024,
      "Ġpeso": 6025,
      "Ġplaces": 6026,
      "Ġexcelente": 6027,
      "Ġdetect": 6028,
      "Ġhaver": 6029,
      "ĠLet": 6030,
      "Ġafirma": 6031,
      "roup": 6032,
      "ĠtÃŃtulo": 6033,
      "boa": 6034,
      "Ġdiretamente": 6035,
      "Ġeuro": 6036,
      "Ġtrig": 6037,
      "Ġpequeno": 6038,
      "Ġpack": 6039,
      "Ġlivros": 6040,
      "Ġprogramas": 6041,
      "ĠCanada": 6042,
      "Ġrise": 6043,
      "oco": 6044,
      "Ġbanda": 6045,
      "Ġolder": 6046,
      "gent": 6047,
      "nder": 6048,
      "Ġ500": 6049,
      "ĠcomentÃ¡rios": 6050,
      "Ġbalance": 6051,
      "Ġstage": 6052,
      "Ġnovamente": 6053,
      "Ġexpected": 6054,
      "ĠHel": 6055,
      "ĠSecretaria": 6056,
      "Ġwinter": 6057,
      "ĠNor": 6058,
      "Ġresponsible": 6059,
      "Ġprimeiros": 6060,
      "bor": 6061,
      "cre": 6062,
      "Ġtherapy": 6063,
      "Ġmention": 6064,
      "Ġdead": 6065,
      "ĠAmb": 6066,
      "Ġutilizar": 6067,
      "Ġcontinuar": 6068,
      "Ġalimentos": 6069,
      "Ġcanal": 6070,
      "Ġbirds": 6071,
      "Ġexib": 6072,
      "cho": 6073,
      "Ã§ar": 6074,
      "Ġferramentas": 6075,
      "andon": 6076,
      "ĠProfess": 6077,
      "osso": 6078,
      "Ġwww": 6079,
      "Ġcima": 6080,
      "Ġeating": 6081,
      "Ġdeal": 6082,
      "Ġanything": 6083,
      "Ġinvestimento": 6084,
      "ĠPortugu": 6085,
      "endeu": 6086,
      "ĠGra": 6087,
      "Ġdram": 6088,
      "Ġeverything": 6089,
      "life": 6090,
      "more": 6091,
      "reek": 6092,
      "Ġaument": 6093,
      "Ġpurch": 6094,
      "ĠPap": 6095,
      "Ġprecisam": 6096,
      "Ġchamado": 6097,
      "Ġdecision": 6098,
      "cido": 6099,
      "han": 6100,
      "Ġfundo": 6101,
      "icionais": 6102,
      "ĠPS": 6103,
      "iox": 6104,
      "Ġoutubro": 6105,
      "Ġexposure": 6106,
      "ĠDiv": 6107,
      "ĠÃ¡l": 6108,
      "Ġappropriate": 6109,
      "Ġtransl": 6110,
      "Ġefeito": 6111,
      "Ġrealizada": 6112,
      "ĠEuropa": 6113,
      "Ġdezembro": 6114,
      "HE": 6115,
      "Ġimedi": 6116,
      "ĠPs": 6117,
      "ĠmÃ¡ximo": 6118,
      "ĠSub": 6119,
      "aco": 6120,
      "ĠMass": 6121,
      "ĠGreat": 6122,
      "rupt": 6123,
      "esqu": 6124,
      "Ġsouth": 6125,
      "ĠPA": 6126,
      "ĠSystem": 6127,
      "riÃ§Ã£o": 6128,
      "Ġclar": 6129,
      "Ġexamples": 6130,
      "off": 6131,
      "Ġporta": 6132,
      "ĠtÃ©cnico": 6133,
      "Ġfile": 6134,
      "Ġmensagem": 6135,
      "Ġchallenges": 6136,
      "Ph": 6137,
      "ĠRet": 6138,
      "ogrÃ¡": 6139,
      "Ġgarden": 6140,
      "ĠâĢ¢": 6141,
      "Ġclube": 6142,
      "Ġshape": 6143,
      "Ġlocation": 6144,
      "08": 6145,
      "Ġweather": 6146,
      "Ġcoast": 6147,
      "care": 6148,
      "Ġregras": 6149,
      "illing": 6150,
      "Ġelabor": 6151,
      "ĠDevelop": 6152,
      "ĠÃ³rg": 6153,
      "fico": 6154,
      "Ġexec": 6155,
      "Ġame": 6156,
      "Ġemploy": 6157,
      "ouch": 6158,
      "ĠHospital": 6159,
      "Ġtalk": 6160,
      "Ġimmune": 6161,
      "ius": 6162,
      "used": 6163,
      "antar": 6164,
      "ober": 6165,
      "Ġwatch": 6166,
      "Ġprocura": 6167,
      "ĠdeverÃ¡": 6168,
      "SE": 6169,
      "Ġwear": 6170,
      "Ġrecently": 6171,
      "Ġmudar": 6172,
      "Ġswe": 6173,
      "Ġcursos": 6174,
      "Ġefforts": 6175,
      "CO": 6176,
      "ench": 6177,
      "ĠTodos": 6178,
      "Ġrecur": 6179,
      "Ġsuccessful": 6180,
      "ĠChristian": 6181,
      "enha": 6182,
      "ĠOff": 6183,
      "Ġ2005": 6184,
      "Ġcontrato": 6185,
      "Ġelements": 6186,
      "Ġcircul": 6187,
      "Ġreligious": 6188,
      "ned": 6189,
      "omos": 6190,
      "rote": 6191,
      "utas": 6192,
      "Ġcontamin": 6193,
      "Ġmodels": 6194,
      "Ġantib": 6195,
      "zy": 6196,
      "Ġsul": 6197,
      "Ġmec": 6198,
      "Ġrat": 6199,
      "ella": 6200,
      "Ġstandards": 6201,
      "03": 6202,
      "uits": 6203,
      "Ġtrying": 6204,
      "ĠEsse": 6205,
      "ĠcomeÃ§a": 6206,
      "ĠClass": 6207,
      "Ġeconomy": 6208,
      "Ġegg": 6209,
      "Ġrout": 6210,
      "Ġdesenvolver": 6211,
      "Ġobjects": 6212,
      "Ġsed": 6213,
      "Ġbenefic": 6214,
      "Ġdrugs": 6215,
      "year": 6216,
      "Ġtim": 6217,
      "Ġconsumo": 6218,
      "Ġsevere": 6219,
      "ĠVideos": 6220,
      "Ġdor": 6221,
      "ĠSet": 6222,
      "Ġescolh": 6223,
      "Ġanimais": 6224,
      "Ġoptions": 6225,
      "Ġconforme": 6226,
      "BC": 6227,
      "Ġnerv": 6228,
      "otos": 6229,
      "Ġclim": 6230,
      "Ġfiscal": 6231,
      "Ġdomin": 6232,
      "Ġapesar": 6233,
      "Ġnorth": 6234,
      "ĠposiÃ§Ã£o": 6235,
      "Ġportanto": 6236,
      "ĠColle": 6237,
      "Ġacompan": 6238,
      "Ġrules": 6239,
      "eios": 6240,
      "Ġgives": 6241,
      "Ġinitial": 6242,
      "ĠdÃºvidas": 6243,
      "Ġdiante": 6244,
      "ĠcÃ¢": 6245,
      "ĠBal": 6246,
      "Jo": 6247,
      "Ġdiscipl": 6248,
      "ĠVi": 6249,
      "Ġorganization": 6250,
      "ourage": 6251,
      "ĠeletrÃ´n": 6252,
      "Ġler": 6253,
      "ĠMad": 6254,
      "Ġmaxim": 6255,
      "urais": 6256,
      "ĠFort": 6257,
      "ĠOu": 6258,
      "Ġvoltar": 6259,
      "Ġcuidados": 6260,
      "Ġmid": 6261,
      "eliz": 6262,
      "ĠJuly": 6263,
      "itable": 6264,
      "Ġadquir": 6265,
      "ptember": 6266,
      "Ġnutrit": 6267,
      "Ġjaneiro": 6268,
      "Ġconquist": 6269,
      "ĠApril": 6270,
      "ĠHouse": 6271,
      "Ġplanet": 6272,
      "ĠmanutenÃ§Ã£o": 6273,
      "ging": 6274,
      "Ġnorte": 6275,
      "Ġconstruction": 6276,
      "Ġcommunication": 6277,
      "Ġneuro": 6278,
      "Ġaffected": 6279,
      "ĠTal": 6280,
      "Ġrock": 6281,
      "ION": 6282,
      "izadas": 6283,
      "Ġuser": 6284,
      "Ġbanco": 6285,
      "Ġbrasileiros": 6286,
      "ourag": 6287,
      "Ġcidad": 6288,
      "Ġisn": 6289,
      "Ġweak": 6290,
      "Ġcredit": 6291,
      "Ġdebate": 6292,
      "ĠreuniÃ£o": 6293,
      "Ĥ¬": 6294,
      "Ġleave": 6295,
      "Ġentrevista": 6296,
      "Ġbrought": 6297,
      "Ġcitiz": 6298,
      "pare": 6299,
      "Ġcm": 6300,
      "Ġatend": 6301,
      "Ãµe": 6302,
      "Ġagosto": 6303,
      "Ġmembros": 6304,
      "rir": 6305,
      "Ġcorn": 6306,
      "clam": 6307,
      "Ġscreen": 6308,
      "Ġbasis": 6309,
      "Ġhttps": 6310,
      "Ġlav": 6311,
      "olÃ³gico": 6312,
      "ki": 6313,
      "ĠHÃ¡": 6314,
      "Ġremain": 6315,
      "Ġalcohol": 6316,
      "set": 6317,
      "ĠAmericans": 6318,
      "rimin": 6319,
      "Ġcasino": 6320,
      "Ġdisponibiliz": 6321,
      "Ġfeliz": 6322,
      "Ġcool": 6323,
      "Ġframe": 6324,
      "55": 6325,
      "Ġteeth": 6326,
      "Ġauth": 6327,
      "Ġinteresting": 6328,
      "hÃ£o": 6329,
      "ĠEducation": 6330,
      "Ġtelefone": 6331,
      "Ġpartida": 6332,
      "Ġcommonly": 6333,
      "can": 6334,
      "Ġmiddle": 6335,
      "Ġlar": 6336,
      "ĠBet": 6337,
      "ĠvisÃ£o": 6338,
      "Ġfriends": 6339,
      "Ġcoorden": 6340,
      "DE": 6341,
      "mal": 6342,
      "ecendo": 6343,
      "Ġwon": 6344,
      "ĠRen": 6345,
      "Ġteria": 6346,
      "Ġeveryone": 6347,
      "Ġgratu": 6348,
      "obo": 6349,
      "Ġdark": 6350,
      "Ġdescribed": 6351,
      "Ġperfe": 6352,
      "Ġmateriais": 6353,
      "tar": 6354,
      "urar": 6355,
      "oda": 6356,
      "Ġusers": 6357,
      "Ġpesquis": 6358,
      "ÃŃlias": 6359,
      "uaÃ§Ã£o": 6360,
      "edo": 6361,
      "ĠveÃŃculo": 6362,
      "Ġice": 6363,
      "posiÃ§Ã£o": 6364,
      "ĠAgora": 6365,
      "Ġviver": 6366,
      "Ġoffers": 6367,
      "CA": 6368,
      "ams": 6369,
      "37": 6370,
      "ĠopiniÃ£o": 6371,
      "Ġhope": 6372,
      "Ġmission": 6373,
      "timo": 6374,
      "ĠHistory": 6375,
      "armos": 6376,
      "ĠDavid": 6377,
      "Ġinstruct": 6378,
      "Ġparal": 6379,
      "Ġ*": 6380,
      "Ġdent": 6381,
      "Ġbele": 6382,
      "ĠmarÃ§o": 6383,
      "rogen": 6384,
      "ĠAle": 6385,
      "Ġtempos": 6386,
      "Ġolhar": 6387,
      "iante": 6388,
      "eless": 6389,
      "emy": 6390,
      "phere": 6391,
      "Ġsigns": 6392,
      "ĠCru": 6393,
      "Ġreality": 6394,
      "ĠrealizaÃ§Ã£o": 6395,
      "Ġgenetic": 6396,
      "Ġsmaller": 6397,
      "edas": 6398,
      "Ġnovembro": 6399,
      "Ġcompleto": 6400,
      "Ġspeak": 6401,
      "ĠConselho": 6402,
      "Ġopportunities": 6403,
      "ĠBer": 6404,
      "Ġstra": 6405,
      "enses": 6406,
      "ĠdireÃ§Ã£o": 6407,
      "Ġequil": 6408,
      "Ġefficient": 6409,
      "Ġoccurs": 6410,
      "Ġcommercial": 6411,
      "88": 6412,
      "Ġvent": 6413,
      "med": 6414,
      "Ġexcept": 6415,
      "Ġespeciais": 6416,
      "Ġsteps": 6417,
      "ystem": 6418,
      "ĠAP": 6419,
      "ĠEven": 6420,
      "ĠclÃ¡ss": 6421,
      "Ġking": 6422,
      "ĠPublic": 6423,
      "Ġafet": 6424,
      "Ġbeg": 6425,
      "ĠconfianÃ§a": 6426,
      "Ġgold": 6427,
      "umes": 6428,
      "Ġcompanh": 6429,
      "ĠPresident": 6430,
      "Veja": 6431,
      "Ġluta": 6432,
      "Ġprol": 6433,
      "ASA": 6434,
      "Ġasked": 6435,
      "ĠlanÃ§amento": 6436,
      "unta": 6437,
      "ĠAmÃ©rica": 6438,
      "Ġcurrently": 6439,
      "Ġmiles": 6440,
      "Ġmoment": 6441,
      "Ġpoucos": 6442,
      "ĠCOM": 6443,
      "ĠAcompanh": 6444,
      "iles": 6445,
      "Ġ300": 6446,
      "Ġunidade": 6447,
      "ĠPlay": 6448,
      "Ġagu": 6449,
      "Ã©n": 6450,
      "ĠHigh": 6451,
      "ĠChin": 6452,
      "Ġbox": 6453,
      "ĠutilizaÃ§Ã£o": 6454,
      "missÃ£o": 6455,
      "Ġinnov": 6456,
      "Ġsangu": 6457,
      "itores": 6458,
      "Ġquart": 6459,
      "ĠpÃºblicos": 6460,
      "Ġauto": 6461,
      "olar": 6462,
      "Ġconver": 6463,
      "Ġapost": 6464,
      "ĠAgr": 6465,
      "Ġroot": 6466,
      "Ġcorret": 6467,
      "Ġsand": 6468,
      "Ġflo": 6469,
      "Ġfair": 6470,
      "Ġfort": 6471,
      "sequ": 6472,
      "Ġbaby": 6473,
      "32": 6474,
      "Ġtare": 6475,
      "Ġscale": 6476,
      "ĠGoverno": 6477,
      "ĠJew": 6478,
      "31": 6479,
      "men": 6480,
      "ords": 6481,
      "ocks": 6482,
      "peonato": 6483,
      "Ġvisto": 6484,
      "ifying": 6485,
      "ceed": 6486,
      "Ġatender": 6487,
      "Ġjulho": 6488,
      "Ġpropried": 6489,
      "cr": 6490,
      "ĠMiss": 6491,
      "Ġestas": 6492,
      "http": 6493,
      "ndia": 6494,
      "ĠInstituto": 6495,
      "Ġdate": 6496,
      "Ġultim": 6497,
      "ÃŃb": 6498,
      "Ġbeyond": 6499,
      "Ġteacher": 6500,
      "Ġiron": 6501,
      "Ġcrucial": 6502,
      "last": 6503,
      "Ġcra": 6504,
      "Ġod": 6505,
      "Ġlinks": 6506,
      "Ġstrugg": 6507,
      "ĠCP": 6508,
      "ĠespÃ©": 6509,
      "Ġabril": 6510,
      "Ġdegree": 6511,
      "Ġcontas": 6512,
      "Ġamigo": 6513,
      "Ġgoes": 6514,
      "Ġcompletely": 6515,
      "34": 6516,
      "Tr": 6517,
      "iful": 6518,
      "cop": 6519,
      "Ġdied": 6520,
      "gery": 6521,
      "ĠAccording": 6522,
      "Ġprinc": 6523,
      "Ġmother": 6524,
      "Ġgeralmente": 6525,
      "Ġefeitos": 6526,
      "tery": 6527,
      "Ġinvent": 6528,
      "Ġpequena": 6529,
      "Ġestudos": 6530,
      "Art": 6531,
      "Ġvital": 6532,
      "ĠAC": 6533,
      "Ġforces": 6534,
      "Ġrua": 6535,
      "ĠRem": 6536,
      "iosa": 6537,
      "ĠParis": 6538,
      "ĠLisboa": 6539,
      "Ġapl": 6540,
      "38": 6541,
      "lhe": 6542,
      "ilhos": 6543,
      "ĠVe": 6544,
      "Ġindiv": 6545,
      "Ġtoward": 6546,
      "estÃ£o": 6547,
      "Ġgosto": 6548,
      "Ġtrata": 6549,
      "Ġexperiment": 6550,
      "Ġrepet": 6551,
      "100": 6552,
      "Ġrig": 6553,
      "Ġaltura": 6554,
      "Ġcomem": 6555,
      "Ġamar": 6556,
      "ĠinstituiÃ§Ãµes": 6557,
      "Ġtela": 6558,
      "envolv": 6559,
      "Ġinstitut": 6560,
      "Ġball": 6561,
      "Ġessencial": 6562,
      "Ġpossam": 6563,
      "Ġperfect": 6564,
      "Ġtrabalhadores": 6565,
      "77": 6566,
      "Ele": 6567,
      "Ġbord": 6568,
      "ĠEdit": 6569,
      "ĠBu": 6570,
      "Ġdisplay": 6571,
      "Ġassistir": 6572,
      "Ġabrir": 6573,
      "Ġpandemia": 6574,
      "izaÃ§Ãµes": 6575,
      "Ġsaw": 6576,
      "Ġsett": 6577,
      "Ġfactor": 6578,
      "Ġcuidado": 6579,
      "aqu": 6580,
      "ued": 6581,
      "wide": 6582,
      "Ġverm": 6583,
      "Ġdefesa": 6584,
      "ĠfamÃŃlias": 6585,
      "ĠcenÃ¡rio": 6586,
      "almente": 6587,
      "enty": 6588,
      "ĠCON": 6589,
      "Ġalone": 6590,
      "Ġimpacto": 6591,
      "Ġsentir": 6592,
      "Ġproperties": 6593,
      "Ġarmazen": 6594,
      "Par": 6595,
      "Ġlonge": 6596,
      "Ġforest": 6597,
      "hoto": 6598,
      "Ġabandon": 6599,
      "Ġclasses": 6600,
      "Ġmeasures": 6601,
      "Conf": 6602,
      "ĠDel": 6603,
      "Ġillness": 6604,
      "iant": 6605,
      "ibus": 6606,
      "Ġemploye": 6607,
      "Ġmut": 6608,
      "Ġhosp": 6609,
      "Ġnothing": 6610,
      "Ġtornou": 6611,
      "ĠpadrÃ£o": 6612,
      "ĠForm": 6613,
      "Ġearlier": 6614,
      "Ġjoint": 6615,
      "Ġferramenta": 6616,
      "Ġsam": 6617,
      "Ġglass": 6618,
      "Ġeducational": 6619,
      "Ġversion": 6620,
      "Ġmad": 6621,
      "icians": 6622,
      "Ġacresc": 6623,
      "ĠcontrÃ¡rio": 6624,
      "Ġbater": 6625,
      "Ġcompreh": 6626,
      "ĠFeb": 6627,
      "Ġelementos": 6628,
      "ĠBols": 6629,
      "Ġpresentes": 6630,
      "ĠrazÃ£o": 6631,
      "ĠnotÃŃcias": 6632,
      "Ġ45": 6633,
      "SC": 6634,
      "Ġdessas": 6635,
      "Ġrecebeu": 6636,
      "Some": 6637,
      "Ġtiv": 6638,
      "imal": 6639,
      "Ġtelevis": 6640,
      "Ġemissions": 6641,
      "ulate": 6642,
      "Ã³st": 6643,
      "Ġfirm": 6644,
      "Ġconflic": 6645,
      "Ġcontinua": 6646,
      "Ġpacientes": 6647,
      "95": 6648,
      "Ġtirar": 6649,
      "Ġhistorical": 6650,
      "Ġvas": 6651,
      "ĠLou": 6652,
      "ĠJames": 6653,
      "Ġpartes": 6654,
      "pus": 6655,
      "oras": 6656,
      "Ġbrit": 6657,
      "Ġobst": 6658,
      "Ġreplac": 6659,
      "Ġflood": 6660,
      "Ġmember": 6661,
      "Ġmoda": 6662,
      "Ġbreast": 6663,
      "Ġmouth": 6664,
      "Ġleve": 6665,
      "ĠfuncionÃ¡rios": 6666,
      "ĠOther": 6667,
      "Ġmedo": 6668,
      "Ġstrategies": 6669,
      "Ġcov": 6670,
      "ĠTy": 6671,
      "agon": 6672,
      "Ġiniti": 6673,
      "works": 6674,
      "Ġbag": 6675,
      "Ġgosta": 6676,
      "Ġshall": 6677,
      "ĠindivÃŃdu": 6678,
      "ĠcÃ©": 6679,
      "Ġbillion": 6680,
      "ĠST": 6681,
      "Ġtrabalhos": 6682,
      "Ġtenham": 6683,
      "ĠMex": 6684,
      "heÃ§a": 6685,
      "ĠNow": 6686,
      "Ġcook": 6687,
      "wood": 6688,
      "fin": 6689,
      "nam": 6690,
      "para": 6691,
      "ĠanÃºn": 6692,
      "ĠEM": 6693,
      "azer": 6694,
      "Ġpud": 6695,
      "icana": 6696,
      "Ġwhe": 6697,
      "Ġmesa": 6698,
      "nes": 6699,
      "Ġstaff": 6700,
      "aint": 6701,
      "Ġce": 6702,
      "eler": 6703,
      "Ġvice": 6704,
      "ontes": 6705,
      "Ġpresence": 6706,
      "Ġseguintes": 6707,
      "ĠAcad": 6708,
      "Fonte": 6709,
      "ĠVis": 6710,
      "Ġconsegue": 6711,
      "Ġgames": 6712,
      "%.": 6713,
      "HO": 6714,
      "Ã©ia": 6715,
      "ĠLo": 6716,
      "aÃ§os": 6717,
      "Ġsinal": 6718,
      "ificial": 6719,
      "Ġkne": 6720,
      "Ġchoice": 6721,
      "Ġfully": 6722,
      "ĠTex": 6723,
      "Ãªmio": 6724,
      "Ġdorm": 6725,
      "Ġnamed": 6726,
      "Ġcollection": 6727,
      "itam": 6728,
      "Ġcompl": 6729,
      "icon": 6730,
      "Ġachieve": 6731,
      "ience": 6732,
      "olis": 6733,
      "Ġ?": 6734,
      "atÃ³rios": 6735,
      "Ġprice": 6736,
      "Ġfoss": 6737,
      "acidade": 6738,
      "Ġneigh": 6739,
      "Ã©tico": 6740,
      "ĠfaÃ§a": 6741,
      "Ġanx": 6742,
      "ĠWater": 6743,
      "ĠDon": 6744,
      "ĠMarc": 6745,
      "Ġtechnologies": 6746,
      "Ġesteja": 6747,
      "ronom": 6748,
      "Ġapplied": 6749,
      "ĠDesc": 6750,
      "Ġlojas": 6751,
      "ygen": 6752,
      "ÃŃrito": 6753,
      "Cons": 6754,
      "Ġdestro": 6755,
      "Ġblue": 6756,
      "Ġexpans": 6757,
      "ĠEngland": 6758,
      "guranÃ§a": 6759,
      "ĠPen": 6760,
      "Ġstories": 6761,
      "Ġpregn": 6762,
      "berg": 6763,
      "Ġforeign": 6764,
      "vido": 6765,
      "ĠCour": 6766,
      "iring": 6767,
      "ĠPM": 6768,
      "uda": 6769,
      "Ġdeixa": 6770,
      "Ġpsic": 6771,
      "Ant": 6772,
      "ĠgrÃ¡": 6773,
      "ĠAlso": 6774,
      "Ġflor": 6775,
      "Ġdiscut": 6776,
      "Ġadopt": 6777,
      "bro": 6778,
      "Ġtub": 6779,
      "Ġleitura": 6780,
      "Ġpowerful": 6781,
      "Ã¢ncias": 6782,
      "Ġescolas": 6783,
      "ĠcÃ³digo": 6784,
      "ĠpressÃ£o": 6785,
      "Ġrule": 6786,
      ":||": 6787,
      "Ġplat": 6788,
      "Ġsimplesmente": 6789,
      "Ġplaced": 6790,
      "ĠveÃŃculos": 6791,
      "Ġmarcas": 6792,
      "ĠAssociation": 6793,
      "48": 6794,
      "Ġpint": 6795,
      "idÃ£o": 6796,
      "nology": 6797,
      "ĠdÃºvida": 6798,
      "vida": 6799,
      "Ġnota": 6800,
      "Ġequal": 6801,
      "Ġliberdade": 6802,
      "ett": 6803,
      "ĠPress": 6804,
      "Ġreduced": 6805,
      "Ġinflamm": 6806,
      "Ã¡lia": 6807,
      "ĠCE": 6808,
      "ĠThen": 6809,
      "jeto": 6810,
      "ĠDA": 6811,
      "Ġplanning": 6812,
      "65": 6813,
      "ĠTest": 6814,
      "Ġstim": 6815,
      "Ġpalavra": 6816,
      "Ġdiscovered": 6817,
      "ĠAustralia": 6818,
      "ĠEgypt": 6819,
      "Ġmotivo": 6820,
      "Ġhimself": 6821,
      "edom": 6822,
      "Ġreais": 6823,
      "ĠDNA": 6824,
      "Ġacho": 6825,
      "Ġquero": 6826,
      "ĠmatÃ©ria": 6827,
      "ĠfÃŃsica": 6828,
      "todo": 6829,
      "Ġincom": 6830,
      "ĠEconom": 6831,
      "IG": 6832,
      "Not": 6833,
      "Ġchances": 6834,
      "Ġallowed": 6835,
      "ĠCounty": 6836,
      "ij": 6837,
      "Ġcities": 6838,
      "ĠtÃ©cnicas": 6839,
      "Ġprefeito": 6840,
      "ĠJun": 6841,
      "Ġsemelh": 6842,
      "ĠUnion": 6843,
      "ricos": 6844,
      "Ġshowed": 6845,
      "Ġcontinued": 6846,
      "Ġextremely": 6847,
      "rich": 6848,
      "ĠdoenÃ§as": 6849,
      "Ġfresh": 6850,
      "Ġorigem": 6851,
      "Ġoportunidades": 6852,
      "ĠindÃºstria": 6853,
      "LE": 6854,
      "Ġlingu": 6855,
      "Ġgirl": 6856,
      "ĠCast": 6857,
      "olÃ³gica": 6858,
      "Ġcomponents": 6859,
      "Ġhumanos": 6860,
      "Ġperfil": 6861,
      "39": 6862,
      "Ser": 6863,
      "Ġmundial": 6864,
      "ĠvÃª": 6865,
      "urance": 6866,
      "key": 6867,
      "Ġrelax": 6868,
      "iciency": 6869,
      "Ġcollabor": 6870,
      "ecÃ§Ã£o": 6871,
      "ĠprÃ¡ticas": 6872,
      "osos": 6873,
      "Ġincreases": 6874,
      "Ġrestaur": 6875,
      "fs": 6876,
      "Ġacus": 6877,
      "ĠJu": 6878,
      "Ġrelatively": 6879,
      "Ġoccup": 6880,
      "Ġleva": 6881,
      "Ġactions": 6882,
      "Esta": 6883,
      "oring": 6884,
      "Ġdrop": 6885,
      "Ġnorm": 6886,
      "ĠCoun": 6887,
      "ĠDuring": 6888,
      "ĠEnvironment": 6889,
      "Ġexplica": 6890,
      "Ġexisting": 6891,
      "heiros": 6892,
      "change": 6893,
      "ĠsituaÃ§Ãµes": 6894,
      "Ġdeseja": 6895,
      "Ġcoming": 6896,
      "Ġforward": 6897,
      "Ġnative": 6898,
      "Ġidentified": 6899,
      "Ġrequirements": 6900,
      "ĠPhil": 6901,
      "SS": 6902,
      "Ġreform": 6903,
      "Ġdaqu": 6904,
      "ĠRoman": 6905,
      "ĠUK": 6906,
      "untos": 6907,
      "Ġestudantes": 6908,
      "emble": 6909,
      "ĠSince": 6910,
      "Ġfollowed": 6911,
      "Ġdocumento": 6912,
      "Ġmajority": 6913,
      "til": 6914,
      "Ġhous": 6915,
      "ĠMary": 6916,
      "ndrome": 6917,
      "iental": 6918,
      "rot": 6919,
      "Ġpequenos": 6920,
      "ĠOctober": 6921,
      "Sim": 6922,
      "iven": 6923,
      "Ġperda": 6924,
      "phas": 6925,
      "Ġclassroom": 6926,
      "78": 6927,
      "iados": 6928,
      "icip": 6929,
      "Ġestr": 6930,
      "Ġaccur": 6931,
      "ruary": 6932,
      "ĠsÃŃ": 6933,
      "Ġfeitas": 6934,
      "ĠÃ¡r": 6935,
      "Ġcombust": 6936,
      "Ġpatterns": 6937,
      "Ġclinical": 6938,
      "ĠTribunal": 6939,
      "eces": 6940,
      "ague": 6941,
      "Ġpeace": 6942,
      "Ġboard": 6943,
      "Ġremove": 6944,
      "omo": 6945,
      "Ġreceita": 6946,
      "Ġcerta": 6947,
      "Ġwoman": 6948,
      "Ġmineral": 6949,
      "ĠpoderÃ£o": 6950,
      "Ġdisorder": 6951,
      "ĠHotel": 6952,
      "esmo": 6953,
      "Ġoffice": 6954,
      "Ġnuclear": 6955,
      "olina": 6956,
      "Ġenf": 6957,
      "Ġpessoais": 6958,
      "ĠEqu": 6959,
      "ĠHy": 6960,
      "Ġtranspar": 6961,
      "ĠLiv": 6962,
      "Ġ195": 6963,
      "Ġaquela": 6964,
      "ĠreduÃ§Ã£o": 6965,
      "Ġexempl": 6966,
      "Ġajust": 6967,
      "Ġsit": 6968,
      "Ġfather": 6969,
      "ĠIgre": 6970,
      "Ġcrise": 6971,
      "Ġincome": 6972,
      "Ġdifferences": 6973,
      "Ġrunning": 6974,
      "iritual": 6975,
      "Ġcore": 6976,
      "Ġvic": 6977,
      "Ġsuppl": 6978,
      "Ġbeleza": 6979,
      "Ġrein": 6980,
      "Ġgraph": 6981,
      "Ġfemale": 6982,
      "HA": 6983,
      "ding": 6984,
      "Ġcaixa": 6985,
      "Ġencourag": 6986,
      "ricul": 6987,
      "Ġradio": 6988,
      "TM": 6989,
      "Ġchu": 6990,
      "ĠVeja": 6991,
      "Ġprofessores": 6992,
      "Ġdocumentos": 6993,
      "ĠFrancisco": 6994,
      "ĠprÃ³ximos": 6995,
      "ĠSociety": 6996,
      "ĠsÃ©culo": 6997,
      "esas": 6998,
      "Depois": 6999,
      "ĠPedro": 7000,
      "Ġvill": 7001,
      "Ġlooks": 7002,
      "pap": 7003,
      "Ġseven": 7004,
      "ĠPeople": 7005,
      "zinho": 7006,
      "Ġment": 7007,
      "Ġrit": 7008,
      "ĠBecause": 7009,
      "Ġdidn": 7010,
      "ĠÂ«": 7011,
      "Ġnaveg": 7012,
      "Ġformer": 7013,
      "Ġupd": 7014,
      "ĠNorte": 7015,
      "ĠPrim": 7016,
      "Ġchanged": 7017,
      "75": 7018,
      "ĠFound": 7019,
      "ĠSeptember": 7020,
      "Ġguide": 7021,
      "Ġinteressante": 7022,
      "known": 7023,
      "ario": 7024,
      "aled": 7025,
      "Ġlas": 7026,
      "indic": 7027,
      "Ġmilk": 7028,
      "Ġvision": 7029,
      "yright": 7030,
      "Ġspo": 7031,
      "ĠSenhor": 7032,
      "apar": 7033,
      "Ġroad": 7034,
      "Ġocas": 7035,
      "istema": 7036,
      "PE": 7037,
      "rates": 7038,
      "Ġcup": 7039,
      "Ġrepe": 7040,
      "ardim": 7041,
      "Ġrespe": 7042,
      "ĠWal": 7043,
      "ĠÃ´": 7044,
      "ibli": 7045,
      "Ġattract": 7046,
      "Ġhumano": 7047,
      "ĠoperaÃ§Ã£o": 7048,
      "ĠTwitter": 7049,
      "Ob": 7050,
      "ription": 7051,
      "Ġitems": 7052,
      "âĢĻ,": 7053,
      "deu": 7054,
      "Ġsemanas": 7055,
      "umn": 7056,
      "Ġstore": 7057,
      "ibly": 7058,
      "Ġbasta": 7059,
      "Ġbairro": 7060,
      "Ġmale": 7061,
      "Ġchega": 7062,
      "Ġtrazer": 7063,
      "ĠChe": 7064,
      "Ġmarav": 7065,
      "Ġdeixou": 7066,
      "Ġconseguiu": 7067,
      "ĠJud": 7068,
      "Ġ2003": 7069,
      "Ġtalvez": 7070,
      "Ġigual": 7071,
      "ĠPac": 7072,
      "ificaÃ§Ãµes": 7073,
      "mod": 7074,
      "Ġton": 7075,
      "Ġmoving": 7076,
      "Ġgiving": 7077,
      "Ġlugares": 7078,
      "ĠHuman": 7079,
      "lÃªs": 7080,
      "nibus": 7081,
      "Ġdepression": 7082,
      "ĠnÃŃveis": 7083,
      "Ã¡r": 7084,
      "Ġriver": 7085,
      "Ġorganizations": 7086,
      "Ġcustos": 7087,
      "Ġappears": 7088,
      "rew": 7089,
      "ĠPin": 7090,
      "Ġassign": 7091,
      "ĠAnal": 7092,
      "Ġpersonagem": 7093,
      "ĠvitÃ³ria": 7094,
      "Ġtrack": 7095,
      "ApÃ³s": 7096,
      "Ġtissue": 7097,
      "02": 7098,
      "ao": 7099,
      "ĠorÃ§": 7100,
      "ĠGru": 7101,
      "Ġcargo": 7102,
      "Ġrisks": 7103,
      "ĠapresentaÃ§Ã£o": 7104,
      "Ġtemperatures": 7105,
      "reu": 7106,
      "ĠChurch": 7107,
      "igure": 7108,
      "ĠEast": 7109,
      "Ġposso": 7110,
      "orage": 7111,
      "ĠGeral": 7112,
      "Ġfeature": 7113,
      "Ġcrist": 7114,
      "Ġcasas": 7115,
      "Ġendere": 7116,
      "Ġchamada": 7117,
      "ball": 7118,
      "Ġaff": 7119,
      "Ġperhaps": 7120,
      "ynam": 7121,
      "lig": 7122,
      "veu": 7123,
      "ĠBay": 7124,
      "ĠDoc": 7125,
      "Ġapont": 7126,
      "ĠComissÃ£o": 7127,
      "guns": 7128,
      "Ġ||": 7129,
      "Ġwrote": 7130,
      "Ġstyle": 7131,
      "Ġpersonagens": 7132,
      "Ġphilos": 7133,
      "related": 7134,
      "Ġillust": 7135,
      "Ġworked": 7136,
      "Ġparticipantes": 7137,
      "Ġnamoro": 7138,
      "Ġpiece": 7139,
      "Ġvelocidade": 7140,
      "ĠfÃ£s": 7141,
      "Ġconect": 7142,
      "Ġapproxim": 7143,
      "Ġfinanci": 7144,
      "mat": 7145,
      "rip": 7146,
      "Ġadministr": 7147,
      "Ġordem": 7148,
      "ĠLondon": 7149,
      "eline": 7150,
      "ĠMot": 7151,
      "ĠGeorge": 7152,
      "Ġlayer": 7153,
      "irÃ¡": 7154,
      "Ġsolutions": 7155,
      "ĠQU": 7156,
      "Ġsector": 7157,
      "ĠMer": 7158,
      "cks": 7159,
      "ĠData": 7160,
      "Ġamerican": 7161,
      "Ġgoals": 7162,
      "posto": 7163,
      "HÃ¡": 7164,
      "Ġunit": 7165,
      "Ġformed": 7166,
      "Ġconsumption": 7167,
      "ĠseleÃ§Ã£o": 7168,
      "Ġcategoria": 7169,
      "Am": 7170,
      "Ġdelas": 7171,
      "ĠOver": 7172,
      "Ġchronic": 7173,
      "osas": 7174,
      "iliar": 7175,
      "presa": 7176,
      "Ġvisita": 7177,
      "letas": 7178,
      "Ġexplore": 7179,
      "Ġacabou": 7180,
      "Sa": 7181,
      "Ġspring": 7182,
      "inger": 7183,
      "ĠCle": 7184,
      "ifically": 7185,
      "ĠUp": 7186,
      "Ġinstance": 7187,
      "ÃŃdos": 7188,
      "Ġtreated": 7189,
      "Ġdrive": 7190,
      "Ġeasier": 7191,
      "Ġfigure": 7192,
      "Ġfatores": 7193,
      "Ġliquid": 7194,
      "Ġnames": 7195,
      "fficient": 7196,
      "Ġvitam": 7197,
      "Ġoffic": 7198,
      "ĠEach": 7199,
      "iform": 7200,
      "ĠCanad": 7201,
      "Ġdestaque": 7202,
      "Ġevolution": 7203,
      "ĠOper": 7204,
      "Ġobt": 7205,
      "Ġvariedade": 7206,
      "Ġconnect": 7207,
      "Ġtais": 7208,
      "ĠNews": 7209,
      "Ġpromover": 7210,
      "ĠpÃ©": 7211,
      "Ġhighest": 7212,
      "Desc": 7213,
      "log": 7214,
      "ĠReal": 7215,
      "ĠFrance": 7216,
      "TO": 7217,
      "ĠServi": 7218,
      "oque": 7219,
      "Ġrural": 7220,
      "ĠExt": 7221,
      "ĠinglÃªs": 7222,
      "Ġtask": 7223,
      "500": 7224,
      "gos": 7225,
      "Ġacqu": 7226,
      "ĠUr": 7227,
      "Ġconstruct": 7228,
      "IF": 7229,
      "Ġ2004": 7230,
      "Ġcomplement": 7231,
      "ĠWestern": 7232,
      "Ġenjoy": 7233,
      "Ġsete": 7234,
      "Ġcontract": 7235,
      "Ġmunicipal": 7236,
      "Ġpicture": 7237,
      "Ġespera": 7238,
      "Ġsuficiente": 7239,
      "Ġdiar": 7240,
      "Ġdeleg": 7241,
      "oga": 7242,
      "ĠGermany": 7243,
      "Ġthr": 7244,
      "Ġcapacity": 7245,
      "Ġworth": 7246,
      "ĠInternacional": 7247,
      "ĠTerra": 7248,
      "Ġarchitect": 7249,
      "Ġthousands": 7250,
      "ĠIgreja": 7251,
      "Ġprovoc": 7252,
      "Ġstructures": 7253,
      "Ġdecades": 7254,
      "Ġacademic": 7255,
      "Ġtranqu": 7256,
      "Ġfilha": 7257,
      "wareness": 7258,
      "à¤": 7259,
      "ÃŃde": 7260,
      "osing": 7261,
      "ĠestarÃ¡": 7262,
      "âĢĻ.": 7263,
      "ĠTheir": 7264,
      "Ġfindings": 7265,
      "!!!": 7266,
      "Sem": 7267,
      "Ġsave": 7268,
      "onas": 7269,
      "pla": 7270,
      "Ġplastic": 7271,
      "Ġexpert": 7272,
      "abilities": 7273,
      "Ġtroca": 7274,
      "gio": 7275,
      "Ġ>": 7276,
      "eses": 7277,
      "Ġjournal": 7278,
      "ĠnegociaÃ§Ã£o": 7279,
      "ĠCOVID": 7280,
      "Ġdetails": 7281,
      "ĠCosta": 7282,
      "Ġfriend": 7283,
      "IR": 7284,
      "Ġmuscle": 7285,
      "board": 7286,
      "ĠpÃºblicas": 7287,
      "98": 7288,
      "Ġwin": 7289,
      "hei": 7290,
      "Ġministro": 7291,
      "ĠJewish": 7292,
      "ĠmÃŃd": 7293,
      "Ġregions": 7294,
      "Ġdistance": 7295,
      "Ġbrin": 7296,
      "Ġgerenci": 7297,
      "Cas": 7298,
      "Ġciv": 7299,
      "ĠcafÃ©": 7300,
      "All": 7301,
      "IO": 7302,
      "Qual": 7303,
      "Ġatrib": 7304,
      "Ġmassa": 7305,
      "ĠrÃ¡pida": 7306,
      "ĠmÃŃnimo": 7307,
      "Ãºblico": 7308,
      "Ġchallenge": 7309,
      "Ab": 7310,
      "elines": 7311,
      "down": 7312,
      "Ġhappen": 7313,
      "Ġtour": 7314,
      "Ġcontempor": 7315,
      "BA": 7316,
      "ĠPan": 7317,
      "take": 7318,
      "ĠJournal": 7319,
      "They": 7320,
      "ĠDesign": 7321,
      "Ġvoz": 7322,
      "ĠCollege": 7323,
      "vant": 7324,
      "Ġrenda": 7325,
      "agu": 7326,
      "ifique": 7327,
      "Ġresistance": 7328,
      "ĠDecember": 7329,
      "ĠProject": 7330,
      "Ġmetab": 7331,
      "ĠreferÃªncia": 7332,
      "ĠpÃ³s": 7333,
      "Ġplans": 7334,
      "Ġcoron": 7335,
      "ĠmÃ©dio": 7336,
      "Ġfunctions": 7337,
      "vement": 7338,
      "Ġbed": 7339,
      "Ġmedicine": 7340,
      "Ġpaciente": 7341,
      "ĠCopa": 7342,
      "Ġatac": 7343,
      "Ġship": 7344,
      "Ġimped": 7345,
      "Ġiniciativa": 7346,
      "Ġpec": 7347,
      "Ġbols": 7348,
      "ĠMich": 7349,
      "Ġoperations": 7350,
      "hece": 7351,
      "ĠPost": 7352,
      "ĠcrÃŃt": 7353,
      "Ġcasamento": 7354,
      "Ġdirection": 7355,
      "Ġbuy": 7356,
      "Ġoxygen": 7357,
      "ĠCov": 7358,
      "uno": 7359,
      "Ġguerra": 7360,
      "ĠInstagram": 7361,
      "ĠPrograma": 7362,
      "ml": 7363,
      "atividade": 7364,
      "ĠCongress": 7365,
      "Ġutilizado": 7366,
      "DB": 7367,
      "bum": 7368,
      "ĠEncont": 7369,
      "Ġfoco": 7370,
      "oster": 7371,
      "Ġdefinit": 7372,
      "hado": 7373,
      "usion": 7374,
      "Ġorganic": 7375,
      "Ġchanging": 7376,
      "Ġrenov": 7377,
      "otes": 7378,
      "ĠNO": 7379,
      "ĠGreen": 7380,
      "Ġatualmente": 7381,
      "Ġsuspe": 7382,
      "Ġnomes": 7383,
      "igen": 7384,
      "Ġkid": 7385,
      "Ġpalest": 7386,
      "ĠHomem": 7387,
      "ĠChinese": 7388,
      "alha": 7389,
      "Ġbodies": 7390,
      "Ġlif": 7391,
      "Ã©todo": 7392,
      "ĠTom": 7393,
      "Ġsignificantly": 7394,
      "ĠRobert": 7395,
      "utes": 7396,
      "Ġrapidamente": 7397,
      "itÃ¡rio": 7398,
      "Ġhun": 7399,
      "antic": 7400,
      "Ġdefined": 7401,
      "Ġpossuem": 7402,
      "Ġstarting": 7403,
      "aries": 7404,
      "Ġhuge": 7405,
      "Ġexperiences": 7406,
      "ructure": 7407,
      "Ġcontexto": 7408,
      "Ġrecords": 7409,
      "ading": 7410,
      "Ġgets": 7411,
      "Ġconnected": 7412,
      "ĠFol": 7413,
      "However": 7414,
      "ville": 7415,
      "Ġcos": 7416,
      "Ġvere": 7417,
      "Ġgave": 7418,
      "46": 7419,
      "imentar": 7420,
      "ĠMundial": 7421,
      "udio": 7422,
      "Ġformal": 7423,
      "Ġrecommended": 7424,
      "ses": 7425,
      "Ġdie": 7426,
      "endas": 7427,
      "ĠexperiÃªncias": 7428,
      "ĠnÃºmeros": 7429,
      "Ġspeech": 7430,
      "Ġimmediately": 7431,
      "After": 7432,
      "Ġpad": 7433,
      "Ġreducing": 7434,
      "Ġvert": 7435,
      "phone": 7436,
      "Ġlearned": 7437,
      "Ġmountain": 7438,
      "Ġperfeito": 7439,
      "Ġeleg": 7440,
      "Ġsetting": 7441,
      "Ġsuggests": 7442,
      "Ġpont": 7443,
      "Ġvary": 7444,
      "indas": 7445,
      "Ġartigos": 7446,
      "Ġreduzir": 7447,
      "irem": 7448,
      "Ġsurpr": 7449,
      "Ġobserved": 7450,
      "iamente": 7451,
      "Ġexhib": 7452,
      "Ġdiscrimin": 7453,
      "hando": 7454,
      "ivel": 7455,
      "Ġsuje": 7456,
      "Ġgrade": 7457,
      "Ġapply": 7458,
      "Ġtrust": 7459,
      "Ġcompletamente": 7460,
      "ĠIP": 7461,
      "ciais": 7462,
      "Ġcarried": 7463,
      "Ġslight": 7464,
      "Ġnumerous": 7465,
      "Ġesquer": 7466,
      "Ġdeixe": 7467,
      "Ã³dio": 7468,
      "ĠatuaÃ§Ã£o": 7469,
      "Ġemphas": 7470,
      "Ġgeneration": 7471,
      "Ġdeputado": 7472,
      "Ġbottom": 7473,
      "ĠBus": 7474,
      "opes": 7475,
      "ĠJanuary": 7476,
      "hael": 7477,
      "Ġlembrar": 7478,
      "Ġaware": 7479,
      "ione": 7480,
      "........": 7481,
      "Ġconducted": 7482,
      "well": 7483,
      "aching": 7484,
      "Ġbelieved": 7485,
      "Ġacompanhar": 7486,
      "Ġfortal": 7487,
      "ĠOp": 7488,
      "Ġadvers": 7489,
      "eixe": 7490,
      "rete": 7491,
      "iber": 7492,
      "Ġflag": 7493,
      "ĠApple": 7494,
      "Ġwrong": 7495,
      "ĠService": 7496,
      "ÃŃamos": 7497,
      "Ġcompro": 7498,
      "Ġ32": 7499,
      "ĠUniÃ£o": 7500,
      "ference": 7501,
      "Ġconnection": 7502,
      "Ġwidely": 7503,
      "Ġcogn": 7504,
      "iday": 7505,
      "etros": 7506,
      "Ġstar": 7507,
      "Ġsolid": 7508,
      "Ġinspir": 7509,
      "Ġcitizens": 7510,
      "Ġbone": 7511,
      "iminal": 7512,
      "Ġterror": 7513,
      "ĠgeraÃ§Ã£o": 7514,
      "Ġfonte": 7515,
      "ĠRua": 7516,
      "ĠVila": 7517,
      "Ġreports": 7518,
      "ĠRepÃºblica": 7519,
      "Most": 7520,
      "aturas": 7521,
      "ixo": 7522,
      "ologist": 7523,
      "Ġcaminh": 7524,
      "Ġdecisions": 7525,
      "ĠContin": 7526,
      "Ġletter": 7527,
      "fas": 7528,
      "Ġpow": 7529,
      "ĠMP": 7530,
      "ĠNovember": 7531,
      "ĠLaw": 7532,
      "cons": 7533,
      "Ġpup": 7534,
      "Ġpresident": 7535,
      "Ġinjury": 7536,
      "Ãĵ": 7537,
      "Ã©rios": 7538,
      "Ġeventually": 7539,
      "Ġdra": 7540,
      "isation": 7541,
      "Ġitens": 7542,
      "nde": 7543,
      "Ġbanc": 7544,
      "Ġrelease": 7545,
      "ĠSk": 7546,
      "Ġpartners": 7547,
      "Ġconforto": 7548,
      "Ġzero": 7549,
      "Ġconceito": 7550,
      "Ġdisorders": 7551,
      "Ġheavy": 7552,
      "ĠSÃ³": 7553,
      "Ġchurch": 7554,
      "ĠTexas": 7555,
      "Ġaulas": 7556,
      "ĠSanto": 7557,
      "Ġstock": 7558,
      "Ġcompras": 7559,
      "Ġinvas": 7560,
      "ĠWhite": 7561,
      "Ġqueria": 7562,
      "ING": 7563,
      "Ġintroduced": 7564,
      "oÃ§Ãµes": 7565,
      "ĠAD": 7566,
      "Ġzona": 7567,
      "ĠcomÃ©rcio": 7568,
      "Ġrar": 7569,
      "ĠEmb": 7570,
      "teriores": 7571,
      "Ġshap": 7572,
      "Ġinfections": 7573,
      "Ġintellig": 7574,
      "Ġacaba": 7575,
      "ĠFebruary": 7576,
      "Ġsurgery": 7577,
      "Ã¡ticos": 7578,
      "ĠmissÃ£o": 7579,
      "Ġcomportamento": 7580,
      "ĠMuseum": 7581,
      "fit": 7582,
      "ycl": 7583,
      "tered": 7584,
      "2012": 7585,
      "Ġresulting": 7586,
      "Ġbaixa": 7587,
      "Ġofertas": 7588,
      "ĠAI": 7589,
      "ĠMen": 7590,
      "ĠRich": 7591,
      "clar": 7592,
      "timas": 7593,
      "ĠSab": 7594,
      "Ġoral": 7595,
      "Ġ2001": 7596,
      "Ġengineering": 7597,
      "ĠÃ´nibus": 7598,
      "hi": 7599,
      "reto": 7600,
      "Ġbud": 7601,
      "cies": 7602,
      "ĠON": 7603,
      "Ġtemas": 7604,
      "Ġunidades": 7605,
      "ĠQuem": 7606,
      "Ġpropag": 7607,
      "Ġmente": 7608,
      "Ġfields": 7609,
      "teis": 7610,
      "Ġcozinha": 7611,
      "atab": 7612,
      "Ġqueda": 7613,
      "ĠNas": 7614,
      "ĠPrefeitura": 7615,
      "Ġinvolves": 7616,
      "Ġmathemat": 7617,
      "BS": 7618,
      "Per": 7619,
      "Que": 7620,
      "isis": 7621,
      "ĠPesso": 7622,
      "Ġneut": 7623,
      "Ġfuncionamento": 7624,
      "ĠportuguÃªs": 7625,
      "Co": 7626,
      "Ġvib": 7627,
      "ĠinstalaÃ§Ã£o": 7628,
      "Ġanxiety": 7629,
      "Ġscen": 7630,
      "Ġcollege": 7631,
      "ĠTudo": 7632,
      "duÃ§Ã£o": 7633,
      "Ġinvestimentos": 7634,
      "Ġcausing": 7635,
      "ashion": 7636,
      "TS": 7637,
      "ĠPass": 7638,
      "ĠdepÃ³sito": 7639,
      "Ġfrequency": 7640,
      "Ġdistinct": 7641,
      "Ġnest": 7642,
      "Ġtradicional": 7643,
      "Ġalternative": 7644,
      "ĠexercÃŃcio": 7645,
      "Ġtouch": 7646,
      "Ġgel": 7647,
      "Ġadjust": 7648,
      "ĠpolÃŃcia": 7649,
      "Ġpassed": 7650,
      "Ġtorno": 7651,
      "Ġdigest": 7652,
      "Ġobjetivos": 7653,
      "Ġrelacionamento": 7654,
      "ĠHoje": 7655,
      "Ġnotice": 7656,
      "Ġpartido": 7657,
      "Ġpraia": 7658,
      "ĠMarket": 7659,
      "Ġresolver": 7660,
      "ĠGlobal": 7661,
      "Port": 7662,
      "ĠMont": 7663,
      "Ġoferta": 7664,
      "Ġleads": 7665,
      "iada": 7666,
      "Ġparent": 7667,
      "Ġformul": 7668,
      "ĠinstituiÃ§Ã£o": 7669,
      "rief": 7670,
      "Ġdoct": 7671,
      "unte": 7672,
      "Ġpromet": 7673,
      "Ġverde": 7674,
      "Ġinvestir": 7675,
      "Ġfornecer": 7676,
      "viv": 7677,
      "Ġbic": 7678,
      "ĠCri": 7679,
      "ĠLuc": 7680,
      "Ġround": 7681,
      "Ġsomos": 7682,
      "Ġtopic": 7683,
      "Ġpresented": 7684,
      "riculum": 7685,
      "itou": 7686,
      "pass": 7687,
      "Ġsede": 7688,
      "ĠSpan": 7689,
      "ĠMelh": 7690,
      "illa": 7691,
      "Ġanyone": 7692,
      "ĠNeg": 7693,
      "Ġdesafios": 7694,
      "nÃ£o": 7695,
      "Ġcycle": 7696,
      "ĠOliv": 7697,
      "Ã§am": 7698,
      "umber": 7699,
      "Ġcarros": 7700,
      "Ġerro": 7701,
      "Ġcombination": 7702,
      "inder": 7703,
      "Ġdangerous": 7704,
      "Ġvaccine": 7705,
      "Ġindo": 7706,
      "Ġjulg": 7707,
      "Ġinclui": 7708,
      "Ġpromov": 7709,
      "Ġfrequently": 7710,
      "Ġbeautiful": 7711,
      "ĠCruz": 7712,
      "lease": 7713,
      "Ġvagas": 7714,
      "Ġexactly": 7715,
      "Ġsample": 7716,
      "Ġemit": 7717,
      "ĠInc": 7718,
      "ĠrelaÃ§Ãµes": 7719,
      "Ġphen": 7720,
      "ĠjurÃŃd": 7721,
      "Ġhouve": 7722,
      "ellent": 7723,
      "ĠespaÃ§os": 7724,
      "Ġexperts": 7725,
      "Ġestabelec": 7726,
      "Ġoption": 7727,
      "istry": 7728,
      "Ġmanage": 7729,
      "Ġadvog": 7730,
      "Ġseparate": 7731,
      "SO": 7732,
      "ilho": 7733,
      "ĠExpl": 7734,
      "Ġvegetables": 7735,
      "ĠhistÃ³rico": 7736,
      "Ġplatform": 7737,
      "hab": 7738,
      "Ġdens": 7739,
      "inÃ¡rio": 7740,
      "Ġfui": 7741,
      "Ã¡dio": 7742,
      "Ġregional": 7743,
      "paign": 7744,
      "ographic": 7745,
      "ĠPresidente": 7746,
      "Ġgene": 7747,
      "ĠPÃºblico": 7748,
      "ĠVale": 7749,
      "Ġdose": 7750,
      "Ġcalor": 7751,
      "Quem": 7752,
      "Ġ1990": 7753,
      "Ġimprensa": 7754,
      "Amer": 7755,
      "Ġbecoming": 7756,
      "Ġindependent": 7757,
      "oral": 7758,
      "ani": 7759,
      "iling": 7760,
      "Ġabertura": 7761,
      "ĠsaÃŃda": 7762,
      "Ġsolo": 7763,
      "Ġsegue": 7764,
      "Ġpopulations": 7765,
      "ĠTherefore": 7766,
      "Ġfailure": 7767,
      "Ġtut": 7768,
      "Ġprejud": 7769,
      "Ġreserva": 7770,
      "Ġmesmos": 7771,
      "Ġattach": 7772,
      "Ġproperly": 7773,
      "Ġconservation": 7774,
      "ĠId": 7775,
      "undos": 7776,
      "west": 7777,
      "yer": 7778,
      "ono": 7779,
      "ĠGre": 7780,
      "Ġspot": 7781,
      "ishing": 7782,
      "Ġcompromet": 7783,
      "Ġrecurso": 7784,
      "ĠcÃ¢mer": 7785,
      "Ġfas": 7786,
      "Ġirrit": 7787,
      "kk": 7788,
      "Ġbound": 7789,
      "ĠRos": 7790,
      "ipp": 7791,
      "Ġsurpre": 7792,
      "Ġfamous": 7793,
      "Ġelectricity": 7794,
      "Ġveio": 7795,
      "ĠAM": 7796,
      "ĠSl": 7797,
      "apia": 7798,
      "Ġleite": 7799,
      "Ġplanos": 7800,
      "49": 7801,
      "dia": 7802,
      "iti": 7803,
      "envolvimento": 7804,
      "Ġefica": 7805,
      "etro": 7806,
      "ĠSha": 7807,
      "Ġembal": 7808,
      "ĠUnder": 7809,
      "Ġgram": 7810,
      "...]": 7811,
      "According": 7812,
      "ĠbilhÃµes": 7813,
      "Tem": 7814,
      "Ġrequer": 7815,
      "ifer": 7816,
      "Ġequival": 7817,
      "Ġreleased": 7818,
      "Ġmeeting": 7819,
      "ipo": 7820,
      "present": 7821,
      "Ġdeveria": 7822,
      "ĠestratÃ©gias": 7823,
      "cers": 7824,
      "ny": 7825,
      "unity": 7826,
      "Ġouvir": 7827,
      "ĠpornÃ´": 7828,
      "inally": 7829,
      "volution": 7830,
      "Ġplease": 7831,
      "urther": 7832,
      "ĠpeÃ§a": 7833,
      "ĠfunÃ§Ãµes": 7834,
      "bras": 7835,
      "alo": 7836,
      "acia": 7837,
      "unately": 7838,
      "Entre": 7839,
      "imas": 7840,
      "Ġempr": 7841,
      "ĠNASA": 7842,
      "Ġready": 7843,
      "Ġvitamin": 7844,
      "ĠAinda": 7845,
      "Ġassessment": 7846,
      "eiras": 7847,
      "ificada": 7848,
      "Why": 7849,
      "Ġbackground": 7850,
      "ĠDevelopment": 7851,
      "Ġbons": 7852,
      "ĠelÃ©tr": 7853,
      "orning": 7854,
      "Ġfuncional": 7855,
      "Ġruas": 7856,
      "%,": 7857,
      "igar": 7858,
      "Ġexce": 7859,
      "Ã¢nia": 7860,
      "iquei": 7861,
      "Ġaspects": 7862,
      "Ġextremamente": 7863,
      ".|": 7864,
      "Ġcred": 7865,
      "ĠNatal": 7866,
      "Ġsimpl": 7867,
      "Ġprocessing": 7868,
      "Ġgarante": 7869,
      "Ġtaxas": 7870,
      "ĠDigital": 7871,
      "?âĢĿ": 7872,
      "Ġavi": 7873,
      "itudes": 7874,
      "oty": 7875,
      "ĠtrÃ¡s": 7876,
      "esco": 7877,
      "anging": 7878,
      "Ġgratuito": 7879,
      "ĠConfira": 7880,
      "bar": 7881,
      "Ġaid": 7882,
      "ĠGrat": 7883,
      "Ġoferecem": 7884,
      "Ġcircum": 7885,
      "Ġregistro": 7886,
      "ancing": 7887,
      "Ġroupas": 7888,
      "Ġsnow": 7889,
      "Ġinternal": 7890,
      "Ġriscos": 7891,
      "Ġefficiency": 7892,
      "Ġdando": 7893,
      "ĠFood": 7894,
      "Ġresource": 7895,
      "Ġarre": 7896,
      "Ġadm": 7897,
      "Ġpassage": 7898,
      "ĠhistÃ³rias": 7899,
      "Ġremoved": 7900,
      "Ġfevereiro": 7901,
      "enso": 7902,
      "ĠIns": 7903,
      "ĠAndr": 7904,
      "rÃ³": 7905,
      "irÃ£o": 7906,
      "Ġtruth": 7907,
      "ĠGovernment": 7908,
      "vos": 7909,
      "Ġlou": 7910,
      "usÃ£o": 7911,
      "Ġpolicies": 7912,
      "Ġmit": 7913,
      "verno": 7914,
      "ĠTrabalho": 7915,
      "zing": 7916,
      "olh": 7917,
      "Ġdesf": 7918,
      "ĠpolÃŃtico": 7919,
      "Ġreclam": 7920,
      "ÃŃc": 7921,
      "ĠVit": 7922,
      "ativamente": 7923,
      "ĠApÃ³s": 7924,
      "Ġhappens": 7925,
      "85": 7926,
      "Ġofic": 7927,
      "estrutura": 7928,
      "odes": 7929,
      "ĠRock": 7930,
      "lick": 7931,
      "Ġmetros": 7932,
      "Ġ150": 7933,
      "venÃ§Ã£o": 7934,
      "ĠZe": 7935,
      "ĠdenÃºn": 7936,
      "rast": 7937,
      "encing": 7938,
      "izando": 7939,
      "Ġchain": 7940,
      "Ġespecialistas": 7941,
      "Ġmoral": 7942,
      "Ġcharacteristics": 7943,
      "pens": 7944,
      "Ġnegoc": 7945,
      "Ġfeeling": 7946,
      "Ġdispositivos": 7947,
      "Ġpert": 7948,
      "Ġperformed": 7949,
      "ĠRepublic": 7950,
      "ĠsaudÃ¡vel": 7951,
      "sia": 7952,
      "Ġconfl": 7953,
      "Ġrequis": 7954,
      "Ġcontrast": 7955,
      "Ġconcorr": 7956,
      "ĠCouncil": 7957,
      "ĠPode": 7958,
      "ĠEr": 7959,
      "cast": 7960,
      "iance": 7961,
      "Ġroub": 7962,
      "Ġcommand": 7963,
      "Ġlonga": 7964,
      "ĠcoleÃ§Ã£o": 7965,
      "Ġusa": 7966,
      "ologists": 7967,
      "Ġconhecida": 7968,
      "Agora": 7969,
      "overy": 7970,
      "osed": 7971,
      "ĠJer": 7972,
      "Ġteste": 7973,
      "Ġpromote": 7974,
      "Ġdificuldades": 7975,
      "Ġearn": 7976,
      "osco": 7977,
      "itada": 7978,
      "Ġrecente": 7979,
      "Ġequipes": 7980,
      "endedor": 7981,
      "Ġmobile": 7982,
      "Ġaproveitar": 7983,
      "ĠSex": 7984,
      "Ġcovered": 7985,
      "Ġprinciples": 7986,
      "elizmente": 7987,
      "nas": 7988,
      "Ġtoxic": 7989,
      "ĠFun": 7990,
      "ĠJac": 7991,
      "posed": 7992,
      "Ġrevista": 7993,
      "Ġetapa": 7994,
      "mm": 7995,
      "Ġitem": 7996,
      "Ġparticipants": 7997,
      "Ġmoved": 7998,
      "Ġaplicativos": 7999,
      "Ġveter": 8000,
      "ĠlÃŃn": 8001,
      "olit": 8002,
      "Ġclasse": 8003,
      "Ġsaf": 8004,
      "Ġdiscussion": 8005,
      "Ġjuntos": 8006,
      "].": 8007,
      "Ġfrag": 8008,
      "ĠPRO": 8009,
      "ĠBud": 8010,
      "Ġstorage": 8011,
      "Ġregime": 8012,
      "ĠOnce": 8013,
      "Ġdepending": 8014,
      "Ġestimated": 8015,
      "Ġlov": 8016,
      "Ġgather": 8017,
      "ĠMr": 8018,
      "Ġaberto": 8019,
      "iraÃ§Ã£o": 8020,
      "Ġideias": 8021,
      "Ġsav": 8022,
      "Ġgrass": 8023,
      "hares": 8024,
      "Ġmensagens": 8025,
      "ĠGrupo": 8026,
      "Te": 8027,
      "elha": 8028,
      "Ã¢nt": 8029,
      "Ġinfra": 8030,
      "Ġ2002": 8031,
      "Ġviagens": 8032,
      "Ġpequenas": 8033,
      "Ġmentioned": 8034,
      "Ġcompanhia": 8035,
      "Ġthick": 8036,
      "itet": 8037,
      "Ġresponder": 8038,
      "Ġthoughts": 8039,
      "Ġpropriet": 8040,
      "Ġpic": 8041,
      "Ġeuros": 8042,
      "ĠDom": 8043,
      "ello": 8044,
      "Ġformato": 8045,
      "Ġretir": 8046,
      "Ġbusc": 8047,
      "ĠAtÃ©": 8048,
      "??": 8049,
      "Us": 8050,
      "ĠCard": 8051,
      "Public": 8052,
      "Ġwel": 8053,
      "Ġje": 8054,
      "rative": 8055,
      "Ġhoriz": 8056,
      "Ġdestino": 8057,
      "enew": 8058,
      "ĠAndroid": 8059,
      "Ġbranco": 8060,
      "Ġsangue": 8061,
      "Our": 8062,
      "Ġhit": 8063,
      "Ġcomuns": 8064,
      "Ġconduz": 8065,
      "Ġasse": 8066,
      "ĠMach": 8067,
      "Ġaspectos": 8068,
      "ĠEscola": 8069,
      "Ġterceiro": 8070,
      "Ġsustainable": 8071,
      "Ġsched": 8072,
      "Ġeight": 8073,
      "iff": 8074,
      "apor": 8075,
      "Ġupper": 8076,
      "ituiÃ§Ã£o": 8077,
      "Ġhelping": 8078,
      "ĠExper": 8079,
      "Ġfinding": 8080,
      "ĠmÃ¡quina": 8081,
      "44": 8082,
      "Ġquadr": 8083,
      "Ġeffectively": 8084,
      "Ġbreve": 8085,
      "Ġfug": 8086,
      "ĠgÃªn": 8087,
      "iller": 8088,
      "ĠAssist": 8089,
      "Ġmusical": 8090,
      "Esse": 8091,
      "Ġauthors": 8092,
      "96": 8093,
      "SÃ£o": 8094,
      "Ġconex": 8095,
      "Ġinternacionais": 8096,
      "Ġsintomas": 8097,
      "place": 8098,
      "ÃŃna": 8099,
      "Ġfarmers": 8100,
      "86": 8101,
      "ĠMerc": 8102,
      "Ġcript": 8103,
      "ĠviolÃªncia": 8104,
      "Ġconcepts": 8105,
      "Ġregarding": 8106,
      "ĠCristo": 8107,
      "Ġapproximately": 8108,
      "CC": 8109,
      "Dr": 8110,
      "Pe": 8111,
      "Ġcourt": 8112,
      "Ġrelationships": 8113,
      "Ġenfrent": 8114,
      "ĠBom": 8115,
      "Ġnotes": 8116,
      "Ġconsol": 8117,
      "Ġbuscar": 8118,
      "ĠÃŃnd": 8119,
      "Ġdado": 8120,
      "atÃ³ria": 8121,
      "Ġconcerns": 8122,
      "Ġseed": 8123,
      "ĠGa": 8124,
      "Ġpages": 8125,
      "Ġhour": 8126,
      "estar": 8127,
      "ching": 8128,
      "Ġjuros": 8129,
      "Ġparty": 8130,
      "Ġmanip": 8131,
      "Ġreference": 8132,
      "ĠChildren": 8133,
      "hada": 8134,
      "net": 8135,
      "Ġwonder": 8136,
      "amar": 8137,
      "gria": 8138,
      "Ġlived": 8139,
      "antos": 8140,
      "ĠMos": 8141,
      "Ġestrut": 8142,
      "ĠAL": 8143,
      "ĠTec": 8144,
      "ĠalimentaÃ§Ã£o": 8145,
      "ieties": 8146,
      "Ã¢nico": 8147,
      "Ġsabor": 8148,
      "ĠBit": 8149,
      "Ġjour": 8150,
      "Ġvalid": 8151,
      "ĠArch": 8152,
      "ĠresponsÃ¡veis": 8153,
      "Ġdescobrir": 8154,
      "Ġcompartilh": 8155,
      "Ġadvantage": 8156,
      "EI": 8157,
      "ey": 8158,
      "qÃ¼": 8159,
      "Ġcomfort": 8160,
      "anted": 8161,
      "Ġapart": 8162,
      "ĠGet": 8163,
      "ĠexposiÃ§Ã£o": 8164,
      "Ġdesej": 8165,
      "Ġarquivo": 8166,
      "Ġfizeram": 8167,
      "anks": 8168,
      "Ġvive": 8169,
      "Ġlin": 8170,
      "ĠSua": 8171,
      "ĠMA": 8172,
      "see": 8173,
      "ĠAssociaÃ§Ã£o": 8174,
      "Ġcontribute": 8175,
      "ĠCamp": 8176,
      "Ġvantagens": 8177,
      "Many": 8178,
      "item": 8179,
      "ĠAst": 8180,
      "peza": 8181,
      "Ġnaturais": 8182,
      "76": 8183,
      "burg": 8184,
      "tor": 8185,
      "Ġpior": 8186,
      "Ġpick": 8187,
      "iveness": 8188,
      "Ġmoder": 8189,
      "ĠprogramaÃ§Ã£o": 8190,
      "ĠSeu": 8191,
      "Ġ400": 8192,
      "pany": 8193,
      "cript": 8194,
      "Ġtiveram": 8195,
      "Ġcounter": 8196,
      "ĠfÃ©rias": 8197,
      "Ġnoted": 8198,
      "Here": 8199,
      "Ġmeat": 8200,
      "ĠdistÃ¢ncia": 8201,
      "Ġtecnologias": 8202,
      "iramente": 8203,
      "Ġexatamente": 8204,
      "ĠFree": 8205,
      "ĠWhy": 8206,
      "Ã¢ncer": 8207,
      "Ã´nica": 8208,
      "ĠhorÃ¡rio": 8209,
      "Ġawareness": 8210,
      "Ġrare": 8211,
      "sto": 8212,
      "Ġseeds": 8213,
      "Ġminhas": 8214,
      "Ġservidores": 8215,
      "Ġflowers": 8216,
      "GB": 8217,
      "Tod": 8218,
      "bert": 8219,
      "Ġlevant": 8220,
      "Ġexposed": 8221,
      "ĠMundo": 8222,
      "ĠHIV": 8223,
      "ĠBrasÃŃlia": 8224,
      "Ġficam": 8225,
      "Ġlinked": 8226,
      "Ġstrategy": 8227,
      "Ġfran": 8228,
      "Ġambos": 8229,
      "dis": 8230,
      "gi": 8231,
      "sito": 8232,
      "ĠprisÃ£o": 8233,
      "Ġprazer": 8234,
      "Ġshop": 8235,
      "Ġcompetit": 8236,
      "ĠpÃ¡ginas": 8237,
      "Ġenviar": 8238,
      "ĠsecretÃ¡rio": 8239,
      "Ġelectrical": 8240,
      "ĠAre": 8241,
      "Ġrid": 8242,
      "ĠLord": 8243,
      "Ġimpression": 8244,
      "Ġcontou": 8245,
      "Ġturned": 8246,
      "Ġtasks": 8247,
      "Ġliterature": 8248,
      "Ġimplic": 8249,
      "ĠclÃŃn": 8250,
      "Ġconfort": 8251,
      "Ġquerem": 8252,
      "ĠvÃŃtima": 8253,
      "Ġinterested": 8254,
      "Ġstatement": 8255,
      "ĠmunicÃŃpios": 8256,
      "ðŁ": 8257,
      "Ġbola": 8258,
      "ĠFore": 8259,
      "Ġ36": 8260,
      "Ġhelped": 8261,
      "Ġfaith": 8262,
      "organ": 8263,
      "ĠGold": 8264,
      "Ġcinema": 8265,
      "grees": 8266,
      "riu": 8267,
      "Ġcasal": 8268,
      "Ġalgor": 8269,
      "2013": 8270,
      "Ġhomes": 8271,
      "Ġviaj": 8272,
      "Ġarquivos": 8273,
      "ĠcientÃŃf": 8274,
      "**": 8275,
      "GO": 8276,
      "ae": 8277,
      "iÃªncias": 8278,
      "Ġtoler": 8279,
      "ĠBah": 8280,
      "ĠFac": 8281,
      "ĠNeste": 8282,
      "ears": 8283,
      "astre": 8284,
      "Ġnutrients": 8285,
      "atically": 8286,
      "etas": 8287,
      "Ġinput": 8288,
      "ells": 8289,
      "comes": 8290,
      "ĠcÃ©l": 8291,
      "Ġlinhas": 8292,
      "ĠPower": 8293,
      "ister": 8294,
      "Ġartificial": 8295,
      "Ġcultiv": 8296,
      "ĠadministraÃ§Ã£o": 8297,
      "Ġtrop": 8298,
      "Ġparam": 8299,
      "Ã¢nsito": 8300,
      "Ġclearly": 8301,
      "Ġvin": 8302,
      "ĠvÃ¡l": 8303,
      "Ġexcl": 8304,
      "Ġtrem": 8305,
      "Ġgradu": 8306,
      "Ġinflammation": 8307,
      "Ġbond": 8308,
      "ĠHor": 8309,
      "RAN": 8310,
      "Ġowners": 8311,
      "Me": 8312,
      "Ġhem": 8313,
      "rier": 8314,
      "ĠExecut": 8315,
      "Ġhearing": 8316,
      "Ġpieces": 8317,
      "Ġacidente": 8318,
      "Ġmostly": 8319,
      "Ġsurvey": 8320,
      "Ġesclar": 8321,
      "Leia": 8322,
      "Ġoito": 8323,
      "Ġminor": 8324,
      "Ġdefine": 8325,
      "Ġallowing": 8326,
      "Ġannual": 8327,
      "top": 8328,
      "ĠTele": 8329,
      "ĠRom": 8330,
      "Ġspect": 8331,
      "eph": 8332,
      "Ġbuildings": 8333,
      "Ġtechnique": 8334,
      "craft": 8335,
      "zil": 8336,
      "ĠaÃ©": 8337,
      "ĠPop": 8338,
      "ĠEvery": 8339,
      "ĠBran": 8340,
      "ertar": 8341,
      "Ġhumana": 8342,
      "Ġradiation": 8343,
      "ĠmÃ©todo": 8344,
      "Ġlung": 8345,
      "ÃŃtulos": 8346,
      "Ġcreation": 8347,
      "Ġconstruir": 8348,
      "ĠSpace": 8349,
      "Ġdescribe": 8350,
      "Ġcandidato": 8351,
      "Ġpretende": 8352,
      "Ġbelong": 8353,
      "ÃŃdas": 8354,
      "Ġwaters": 8355,
      "abiliz": 8356,
      "Ġcompress": 8357,
      "lder": 8358,
      "born": 8359,
      "Ġsong": 8360,
      "ĠSum": 8361,
      "izou": 8362,
      "ogue": 8363,
      "ĠAsia": 8364,
      "ĠStand": 8365,
      "Ġexperienced": 8366,
      "Ġretorn": 8367,
      "Ġidentificar": 8368,
      "Ġtornando": 8369,
      "ĠBrasileiro": 8370,
      "Ġdemocra": 8371,
      "Ġmaravilhos": 8372,
      "lar": 8373,
      "airs": 8374,
      "Ġcritic": 8375,
      "Ġdiagnosis": 8376,
      "Ġhousehold": 8377,
      "Ġquadro": 8378,
      "Ġsquare": 8379,
      "Ġconflict": 8380,
      "Ol": 8381,
      "ĠChap": 8382,
      "Ġrace": 8383,
      "Ġcontinues": 8384,
      "Ġchemicals": 8385,
      "mic": 8386,
      "ĠFazer": 8387,
      "ĠFoundation": 8388,
      "Ġ<": 8389,
      "Ġdiam": 8390,
      "ĠSun": 8391,
      "ĠThomas": 8392,
      "Ġdecide": 8393,
      "Ġamounts": 8394,
      "Ġrelevant": 8395,
      "Assim": 8396,
      "Ġerros": 8397,
      "athy": 8398,
      "Ġreflex": 8399,
      "Ã¡logo": 8400,
      "hyd": 8401,
      "47": 8402,
      "ulated": 8403,
      "ĠResp": 8404,
      "Ġhealthcare": 8405,
      "Ġwanted": 8406,
      "ĠOliveira": 8407,
      "Ġclick": 8408,
      "Ġfreedom": 8409,
      "Resp": 8410,
      "Ġnao": 8411,
      "ĠProv": 8412,
      "Ġexpression": 8413,
      "Ġenorme": 8414,
      "ĠAz": 8415,
      "utos": 8416,
      "Ġavent": 8417,
      "Ġhabitat": 8418,
      "Ġdesafio": 8419,
      "Ġlandsc": 8420,
      "pher": 8421,
      "arial": 8422,
      "Ġfine": 8423,
      "ĠCre": 8424,
      "Ġoutput": 8425,
      "standing": 8426,
      "Ġpopulares": 8427,
      "Ġescrever": 8428,
      "ĠSpanish": 8429,
      "Ġbor": 8430,
      "Ġmoist": 8431,
      "my": 8432,
      "Ġcere": 8433,
      "uly": 8434,
      "tee": 8435,
      "print": 8436,
      "preci": 8437,
      "Ġcurt": 8438,
      "Ġinser": 8439,
      "Ġconsiderado": 8440,
      "cosystem": 8441,
      "ĠControl": 8442,
      "Ġsonho": 8443,
      "ĠHa": 8444,
      "Although": 8445,
      "PT": 8446,
      "rations": 8447,
      "rif": 8448,
      "Ġexterior": 8449,
      "ĠNatural": 8450,
      "ĠHam": 8451,
      "Ġfruits": 8452,
      "riga": 8453,
      "ismos": 8454,
      "Ġesperar": 8455,
      "ocolate": 8456,
      "Ġdental": 8457,
      "ĠPDF": 8458,
      "ĠFel": 8459,
      "ĠpossÃŃveis": 8460,
      "That": 8461,
      "Ġhomen": 8462,
      "ĠStudents": 8463,
      "Ġreaction": 8464,
      "Ġeurope": 8465,
      "OD": 8466,
      "Ã§ado": 8467,
      "ĠAqui": 8468,
      "ĠLim": 8469,
      "Ġstraight": 8470,
      "Ġdynam": 8471,
      "usa": 8472,
      "ĠEN": 8473,
      "ĠGroup": 8474,
      "Ġcry": 8475,
      "Inst": 8476,
      "ĠPortanto": 8477,
      "Ġreferred": 8478,
      "ĠdecisÃµes": 8479,
      "ĠcomentÃ¡rio": 8480,
      "Ġsorte": 8481,
      "ested": 8482,
      "ĠNÃ³s": 8483,
      "Ġprovavelmente": 8484,
      "itÃ¡ria": 8485,
      "Ġato": 8486,
      "Ġwealth": 8487,
      "Ġdogs": 8488,
      "Ġmessage": 8489,
      "ĠProfessor": 8490,
      "Or": 8491,
      "Sp": 8492,
      "Ġtons": 8493,
      "Ġmos": 8494,
      "Ġacord": 8495,
      "Ġassass": 8496,
      "Ġobvious": 8497,
      "iosos": 8498,
      "Ġphase": 8499,
      "ĠCaso": 8500,
      "Ġpig": 8501,
      "ĠSat": 8502,
      "Ġontem": 8503,
      "ĠThus": 8504,
      "Ġgig": 8505,
      "rigo": 8506,
      "ĠpromoÃ§Ã£o": 8507,
      "Ġproposed": 8508,
      "89": 8509,
      "From": 8510,
      "bed": 8511,
      "rick": 8512,
      "Ġbird": 8513,
      "Ġemployees": 8514,
      "Ġcrisis": 8515,
      "Ġperguntas": 8516,
      "Sh": 8517,
      "agre": 8518,
      "RS": 8519,
      "wer": 8520,
      "inÃ¡ria": 8521,
      "ĠDesp": 8522,
      "Ã¡stico": 8523,
      "enho": 8524,
      "Ġfis": 8525,
      "ĠBon": 8526,
      "Ã³m": 8527,
      "Ġencer": 8528,
      "Ġcompens": 8529,
      "Ġdestin": 8530,
      "Ġ75": 8531,
      "ĠÃ³tima": 8532,
      "Ġemprego": 8533,
      "ĠtendÃªncia": 8534,
      "Ġgender": 8535,
      "Ġyellow": 8536,
      "epend": 8537,
      "Ġadvanced": 8538,
      "itoral": 8539,
      "Ġprotected": 8540,
      "Ġrecorded": 8541,
      "andom": 8542,
      "Ġoperation": 8543,
      "Ġrepresenta": 8544,
      "ĠBook": 8545,
      "verty": 8546,
      "Ġserved": 8547,
      "Ġdriving": 8548,
      "Essa": 8549,
      "Ġforneced": 8550,
      "ĠincrÃŃvel": 8551,
      "Ġdegrees": 8552,
      "Ġwarn": 8553,
      "Ġisland": 8554,
      "ffic": 8555,
      "Ġautonom": 8556,
      "Ġcareer": 8557,
      "Ġgarantia": 8558,
      "TC": 8559,
      "Ġtap": 8560,
      "Ġoccas": 8561,
      "Ġocorrer": 8562,
      "Ġprecisar": 8563,
      "Ġimproved": 8564,
      "tica": 8565,
      "win": 8566,
      "icidade": 8567,
      "ĠLula": 8568,
      "Ġaquilo": 8569,
      "ĠRegional": 8570,
      "ĠbotÃ£o": 8571,
      "ĠIl": 8572,
      "ĠregiÃµes": 8573,
      "Ġveja": 8574,
      "Ġsignal": 8575,
      "ĠalteraÃ§Ãµes": 8576,
      "cal": 8577,
      "ophy": 8578,
      "Ġperceber": 8579,
      "Hoje": 8580,
      "enth": 8581,
      "Ġproib": 8582,
      "ciences": 8583,
      "Ġrespir": 8584,
      "Ġencourage": 8585,
      "box": 8586,
      "Ġfocused": 8587,
      "ĠendereÃ§o": 8588,
      "Ġdura": 8589,
      "Ġvolunt": 8590,
      "gal": 8591,
      "zas": 8592,
      "ecia": 8593,
      "ÃŃficos": 8594,
      "ĠoperaÃ§Ãµes": 8595,
      "Ġtecn": 8596,
      "Ġimpacts": 8597,
      "Ġmeios": 8598,
      "iago": 8599,
      "Ġjeito": 8600,
      "presidente": 8601,
      "Ġrelacionados": 8602,
      "Ġdecided": 8603,
      "Can": 8604,
      "ls": 8605,
      "ĠBig": 8606,
      "Ġcarta": 8607,
      "Ġallerg": 8608,
      "Ġarticles": 8609,
      "Ġsurf": 8610,
      "Ġcompleted": 8611,
      "into": 8612,
      "Ġotim": 8613,
      "Ġfaster": 8614,
      "ĠCN": 8615,
      "ums": 8616,
      "Ãºr": 8617,
      "DP": 8618,
      "cura": 8619,
      "Ġcomand": 8620,
      "ĠIII": 8621,
      "teira": 8622,
      "Ġtrabalha": 8623,
      "Ġconsumidor": 8624,
      "Ainda": 8625,
      "tra": 8626,
      "wing": 8627,
      "with": 8628,
      "Ġhabilidades": 8629,
      "Ġvender": 8630,
      "Ġcancel": 8631,
      "Ġpoly": 8632,
      "ĠJapanese": 8633,
      "Ġcade": 8634,
      "imens": 8635,
      "iler": 8636,
      "esses": 8637,
      "Ġgerar": 8638,
      "Ġ[...]": 8639,
      "ĠDesenvolvimento": 8640,
      "Ġpaz": 8641,
      "ician": 8642,
      "uts": 8643,
      "ĠPR": 8644,
      "ĠLab": 8645,
      "Ġcompat": 8646,
      "Ġmadeira": 8647,
      "Ġdrinking": 8648,
      "Ġprepared": 8649,
      "Ġfinanceira": 8650,
      "ĠBrasileira": 8651,
      "Ġcolaboradores": 8652,
      "adia": 8653,
      "Ġtips": 8654,
      "ĠfÃ©": 8655,
      "abul": 8656,
      "aches": 8657,
      "Ġcampaign": 8658,
      "Ġmonitoring": 8659,
      "Ġtinham": 8660,
      "Ġspl": 8661,
      "Ġsports": 8662,
      "Ġcarreg": 8663,
      "formas": 8664,
      "ĠSeguranÃ§a": 8665,
      "ĠVirgin": 8666,
      "ĠprÃ³prios": 8667,
      "'ll": 8668,
      "Ġocean": 8669,
      "edes": 8670,
      "Ġquil": 8671,
      "Ġespan": 8672,
      "Ġdetermined": 8673,
      "lamentar": 8674,
      "ĠCir": 8675,
      "igr": 8676,
      "ĠRib": 8677,
      "Ġencamin": 8678,
      "Ġvalu": 8679,
      "lectual": 8680,
      "ĠCasino": 8681,
      "Ġtemperatura": 8682,
      "ĠPhys": 8683,
      "Ġdial": 8684,
      "uldade": 8685,
      "2023": 8686,
      "ĠpublicaÃ§Ã£o": 8687,
      "Ġpedir": 8688,
      "Ġincluem": 8689,
      "Ġadot": 8690,
      "Ġpreviously": 8691,
      "ĠdÃ³l": 8692,
      "Ġcai": 8693,
      "leta": 8694,
      "Ġexport": 8695,
      "ĠIts": 8696,
      "Ġheard": 8697,
      "Ġbattle": 8698,
      "Ġdistribution": 8699,
      "ĠLuiz": 8700,
      "Ġcompromisso": 8701,
      "graÃ§Ã£o": 8702,
      "ĠpÃ©s": 8703,
      "Ġcord": 8704,
      "Ġhaz": 8705,
      "ĠElect": 8706,
      "Ġpoverty": 8707,
      "Ġartes": 8708,
      "Ġcombined": 8709,
      "Ġhyper": 8710,
      "Ġamea": 8711,
      "Ġdil": 8712,
      "ĠMinas": 8713,
      "Ġaren": 8714,
      "Ġgenes": 8715,
      "ÃŃdio": 8716,
      "ĠinvestigaÃ§Ã£o": 8717,
      "Ġvenced": 8718,
      "amentais": 8719,
      "Ġbegins": 8720,
      "ĠAgricult": 8721,
      "Ġappar": 8722,
      "ĠGreek": 8723,
      "ĠLearning": 8724,
      "ĠÃ¢mb": 8725,
      "icl": 8726,
      "Ġabus": 8727,
      "Ġphone": 8728,
      "ĠPorÃ©m": 8729,
      "ĠmemÃ³ria": 8730,
      "Ġquartos": 8731,
      "Ġdign": 8732,
      "onaro": 8733,
      "ĠRa": 8734,
      "Ġsalt": 8735,
      "Ġlevou": 8736,
      "Ġshowing": 8737,
      "Ġlanguages": 8738,
      "Ġkinds": 8739,
      "Ġpergunta": 8740,
      "iner": 8741,
      "Ġnit": 8742,
      "Ġviu": 8743,
      "Ġatmosphere": 8744,
      "ĠCR": 8745,
      "ĠDu": 8746,
      "iversity": 8747,
      "Ġtreatments": 8748,
      "ĠsessÃ£o": 8749,
      "Ġwalk": 8750,
      "Ġprices": 8751,
      "ĠRad": 8752,
      "Ġartic": 8753,
      "ĠÃºtil": 8754,
      "ĠMedical": 8755,
      "ĠdistribuiÃ§Ã£o": 8756,
      "ĠInformation": 8757,
      "âĤ¬": 8758,
      "itness": 8759,
      "icks": 8760,
      "Ġclima": 8761,
      "Ġspecifically": 8762,
      "Ġcontribu": 8763,
      "Ġmecan": 8764,
      "ship": 8765,
      "Ġabund": 8766,
      "Ġspend": 8767,
      "Ġsegment": 8768,
      "Ġcampe": 8769,
      "Ġviolence": 8770,
      "Ġmm": 8771,
      "aba": 8772,
      "Ġmeant": 8773,
      "ĠEns": 8774,
      "Ġexcellent": 8775,
      "Ġpollution": 8776,
      "ĠalcanÃ§ar": 8777,
      "Ġestrel": 8778,
      "Ġoptim": 8779,
      "Ġnorthern": 8780,
      "ĠSmith": 8781,
      "ĠesforÃ§o": 8782,
      "Confira": 8783,
      "ĠorÃ§amento": 8784,
      "ady": 8785,
      "ogen": 8786,
      "irou": 8787,
      "Ġmuse": 8788,
      "Ġsituations": 8789,
      "Ġfrequent": 8790,
      "Ġfacilmente": 8791,
      "Ġtechnical": 8792,
      "More": 8793,
      "field": 8794,
      "Ġsap": 8795,
      "Ġvast": 8796,
      "Ġjobs": 8797,
      "Ġvantagem": 8798,
      "ĠexecuÃ§Ã£o": 8799,
      "fund": 8800,
      "Ġconced": 8801,
      "Ġestran": 8802,
      "otas": 8803,
      "ĠVict": 8804,
      "Ġtopics": 8805,
      "Ġsouthern": 8806,
      "ĠBa": 8807,
      "ĠGab": 8808,
      "Ġlatest": 8809,
      "Ġargument": 8810,
      "Ġsymbol": 8811,
      "Now": 8812,
      "etics": 8813,
      "Ġcriminal": 8814,
      "elhas": 8815,
      "ĠsensaÃ§Ã£o": 8816,
      "UM": 8817,
      "Ġcloud": 8818,
      "Ġheight": 8819,
      "Ġintest": 8820,
      "ĠmÃ©dicos": 8821,
      "ĠCovid": 8822,
      "LA": 8823,
      "Ġbright": 8824,
      "ĠLin": 8825,
      "tenÃ§Ã£o": 8826,
      "Ġmanufacturing": 8827,
      "Ġvehicle": 8828,
      "Post": 8829,
      "Ġlose": 8830,
      "Ġrelative": 8831,
      "Ġattrib": 8832,
      "Ġmainly": 8833,
      "ĠorganizaÃ§Ãµes": 8834,
      "Ġceleb": 8835,
      "amo": 8836,
      "iversÃ¡rio": 8837,
      "Ġcontrolled": 8838,
      "42": 8839,
      "band": 8840,
      "Ġfogo": 8841,
      "Ġadmit": 8842,
      "ĠEmp": 8843,
      "Ġretorno": 8844,
      "regular": 8845,
      "ĠrecuperaÃ§Ã£o": 8846,
      "Ġmascul": 8847,
      "Ġimplant": 8848,
      "Ġeggs": 8849,
      "Ġestat": 8850,
      "Ġcriado": 8851,
      "Ġconden": 8852,
      "Ġaparelho": 8853,
      "Ġfeedback": 8854,
      "ĠdecoraÃ§Ã£o": 8855,
      "VA": 8856,
      "lers": 8857,
      "ĠSite": 8858,
      "arda": 8859,
      "ornal": 8860,
      "Ġpersist": 8861,
      "Ġintended": 8862,
      "Ġadvice": 8863,
      "ÃŃlio": 8864,
      "Ġconsumidores": 8865,
      "Ġvictim": 8866,
      "Ġster": 8867,
      "Ġrosto": 8868,
      "Ġkept": 8869,
      "Ġnormalmente": 8870,
      "arc": 8871,
      "ules": 8872,
      "tei": 8873,
      "ĠKar": 8874,
      "Ġliver": 8875,
      "Ġcombate": 8876,
      "ĠcondiÃ§Ã£o": 8877,
      "App": 8878,
      "ericana": 8879,
      "Ġpip": 8880,
      "Ġdepress": 8881,
      "ĠNature": 8882,
      "guas": 8883,
      "ĠterÃ£o": 8884,
      "Ġkilled": 8885,
      "Ġescal": 8886,
      "Ġsurge": 8887,
      "ifestyle": 8888,
      "Ġpurposes": 8889,
      "Ġdemanda": 8890,
      "Ġhypo": 8891,
      "Ġchegada": 8892,
      "ĠSalv": 8893,
      "ĠdÃ©cada": 8894,
      "onha": 8895,
      "Ġmorning": 8896,
      "oporto": 8897,
      "Ġmanner": 8898,
      "ĠnecessÃ¡ria": 8899,
      "ette": 8900,
      "Ġdistingu": 8901,
      "ĠdiscussÃ£o": 8902,
      "Ġemergency": 8903,
      "Ġshared": 8904,
      "ĠCharles": 8905,
      "Ġemotional": 8906,
      "ĠmÃŃdia": 8907,
      "Ġcurriculum": 8908,
      "Ġautoridades": 8909,
      "Ġsaying": 8910,
      "Ġagricultural": 8911,
      "Ġdouble": 8912,
      "Ã³stico": 8913,
      "41": 8914,
      "Ġaposta": 8915,
      "Ġmuscles": 8916,
      "Ġindex": 8917,
      "Ġigre": 8918,
      "ĠCourt": 8919,
      "olas": 8920,
      "Ġprepare": 8921,
      "Ġdeixando": 8922,
      "Ġganhou": 8923,
      "Ġpaint": 8924,
      "thesis": 8925,
      "ĠOF": 8926,
      "ĠLong": 8927,
      "Ã¢nica": 8928,
      "Ġidentidade": 8929,
      "Ġdispositivo": 8930,
      "Ġwet": 8931,
      "Ġmilhares": 8932,
      "ĠBritain": 8933,
      "heim": 8934,
      "Ġfeitos": 8935,
      "Ġnovidades": 8936,
      "Ġadding": 8937,
      "Ġconversa": 8938,
      "Ġdatab": 8939,
      "Ġbear": 8940,
      "ĠDireito": 8941,
      "Ġ)": 8942,
      "Ġaleg": 8943,
      "Ġthin": 8944,
      "uba": 8945,
      "Ġdestru": 8946,
      "ĠFilmes": 8947,
      "ĠBahia": 8948,
      "Ġvaz": 8949,
      "ceis": 8950,
      "Ġsud": 8951,
      "ĠAna": 8952,
      "ounced": 8953,
      "Ġcirurg": 8954,
      "Ġrevolution": 8955,
      "Durante": 8956,
      "Foi": 8957,
      "Ġaus": 8958,
      "ĠLabor": 8959,
      "Ġpreench": 8960,
      "ĠmÃ³veis": 8961,
      "Ã¡cio": 8962,
      "ĠFed": 8963,
      "alled": 8964,
      "aterial": 8965,
      "Ġverificar": 8966,
      "Ġequipamento": 8967,
      "what": 8968,
      "ĠÃ¢mbito": 8969,
      "Ġanc": 8970,
      "eli": 8971,
      "ionar": 8972,
      "Ġenfer": 8973,
      "Ġusados": 8974,
      "Ġrecentemente": 8975,
      "Ġflat": 8976,
      "Ġprimarily": 8977,
      "ĠMake": 8978,
      "Ġcruz": 8979,
      "Ġataque": 8980,
      "Ġsel": 8981,
      "Ġfiles": 8982,
      "Ġprotest": 8983,
      "Ġfamiliares": 8984,
      "Ġiniciar": 8985,
      "Dis": 8986,
      "sen": 8987,
      "Ġinterface": 8988,
      "Ġdireto": 8989,
      "inson": 8990,
      "Ġfacts": 8991,
      "Ġsteel": 8992,
      "ĠFernando": 8993,
      "Ġidos": 8994,
      "Ġrecept": 8995,
      "ĠIsland": 8996,
      "Ġtratar": 8997,
      "ĠmÃºsicas": 8998,
      "Ġdrogas": 8999,
      "wa": 9000,
      "Ġdoll": 9001,
      "onic": 9002,
      "Ġdrink": 9003,
      "Ġinstitutions": 9004,
      "Go": 9005,
      "Ġba": 9006,
      "ĠDise": 9007,
      "Ġparticles": 9008,
      "Ġrefers": 9009,
      "Ġadvoc": 9010,
      "ĠcompetiÃ§Ã£o": 9011,
      "ĠespÃ©cie": 9012,
      "ecida": 9013,
      "ĠTop": 9014,
      "ĠBur": 9015,
      "aga": 9016,
      "ĠHall": 9017,
      "Ġhelpful": 9018,
      "ĠexistÃªncia": 9019,
      "Ġcandidatos": 9020,
      "Ġvisitar": 9021,
      "Ġgrave": 9022,
      "ĠJews": 9023,
      "EntÃ£o": 9024,
      "--------": 9025,
      "ĠLouis": 9026,
      "astern": 9027,
      "ĠTre": 9028,
      "rane": 9029,
      "ĠÃ¡rv": 9030,
      "fri": 9031,
      "orro": 9032,
      "Ġatras": 9033,
      "Ġdespite": 9034,
      "ĠFranÃ§a": 9035,
      "Ġreached": 9036,
      "Ġacessar": 9037,
      "Ġdificuldade": 9038,
      "Ġsurrounding": 9039,
      "Ġecosystem": 9040,
      "ĠTor": 9041,
      "ĠStreet": 9042,
      "Ġformat": 9043,
      "Ġinfected": 9044,
      "Ġinfrast": 9045,
      "orada": 9046,
      "iced": 9047,
      "ĠEdu": 9048,
      "Ġclub": 9049,
      "ertos": 9050,
      "Ġmencion": 9051,
      "Ġambiental": 9052,
      "Ġautomatic": 9053,
      "Ġprocedimento": 9054,
      "Ġrestaurante": 9055,
      "Ġaccurate": 9056,
      "Ġdefend": 9057,
      "Ġdefinition": 9058,
      "Ġplaying": 9059,
      "ĠbebÃª": 9060,
      "ali": 9061,
      "Ġgall": 9062,
      "Ġwhom": 9063,
      "Ġuniform": 9064,
      "ĠRussian": 9065,
      "ĠToday": 9066,
      "lastname": 9067,
      "ded": 9068,
      "normal": 9069,
      "enance": 9070,
      "anha": 9071,
      "Ġvess": 9072,
      "Ġfortes": 9073,
      "ĠHome": 9074,
      "Ġafast": 9075,
      "ĠEnergy": 9076,
      "Ġproteins": 9077,
      "Ġ1999": 9078,
      "Ġkeeping": 9079,
      "zen": 9080,
      "ocar": 9081,
      "ritos": 9082,
      "Ã©todos": 9083,
      "ĠFrank": 9084,
      "ĠdisposiÃ§Ã£o": 9085,
      "Mu": 9086,
      "Ġcassinos": 9087,
      "uo": 9088,
      "omach": 9089,
      "Ġbac": 9090,
      "Ġcomment": 9091,
      "ĠAR": 9092,
      "ĠMel": 9093,
      "Ġcolors": 9094,
      "Ġpractical": 9095,
      "ĠresistÃªncia": 9096,
      "Ġselected": 9097,
      "ijo": 9098,
      "Ġpurs": 9099,
      "ĠCond": 9100,
      "Ġ65": 9101,
      "Ġletters": 9102,
      "bt": 9103,
      "medi": 9104,
      "ĠaÃ§": 9105,
      "ows": 9106,
      "Ġ48": 9107,
      "Ġindicate": 9108,
      "ĠpolÃŃticos": 9109,
      "Ġcomponent": 9110,
      "ĠmÃ¡quinas": 9111,
      "ĠTechnology": 9112,
      "Neste": 9113,
      "role": 9114,
      "Ġgod": 9115,
      "Ġcarre": 9116,
      "Ġplaneta": 9117,
      "afa": 9118,
      "ĠinÃºmer": 9119,
      "Ġlimpeza": 9120,
      "Ġprocedure": 9121,
      "ĠDaniel": 9122,
      "ipl": 9123,
      "Ġmista": 9124,
      "ilhas": 9125,
      "igas": 9126,
      "ths": 9127,
      "icais": 9128,
      "ĠIndust": 9129,
      "Ġformation": 9130,
      "ratic": 9131,
      "ĠIslam": 9132,
      "Ġresponsibility": 9133,
      "Ġocorreu": 9134,
      "ĠforÃ§as": 9135,
      "istan": 9136,
      "Ġcharg": 9137,
      "ĠStar": 9138,
      "Ġprotagon": 9139,
      "ĠÃ³leo": 9140,
      "ĠlanÃ§ado": 9141,
      "Ġresidents": 9142,
      "ĠMedicine": 9143,
      "ĠverÃ£o": 9144,
      "rating": 9145,
      "ometimes": 9146,
      "Ġbusinesses": 9147,
      "ĠMilitar": 9148,
      "itados": 9149,
      "Ġpermitir": 9150,
      "nel": 9151,
      "ĠWild": 9152,
      "harm": 9153,
      "Ġextreme": 9154,
      "Ġsabia": 9155,
      "Ġcabelos": 9156,
      "Ġdipl": 9157,
      "Ġprocurar": 9158,
      "ĠeficiÃªncia": 9159,
      "PM": 9160,
      "ĠcÃ¢ncer": 9161,
      "onde": 9162,
      "ĠquÃŃm": 9163,
      "ĠLife": 9164,
      "Ġoutcomes": 9165,
      "ĠrelatÃ³rio": 9166,
      "Ġtestes": 9167,
      "Ġfinanceiro": 9168,
      "ĠVideo": 9169,
      "enco": 9170,
      "ilities": 9171,
      "Ġrenew": 9172,
      "Ġpron": 9173,
      "ĠRE": 9174,
      "ĠWord": 9175,
      "Ġmanual": 9176,
      "cionais": 9177,
      "Ġattacks": 9178,
      "Ġressalt": 9179,
      "Ġabst": 9180,
      "ĠInvest": 9181,
      "Ġspent": 9182,
      "Ġtail": 9183,
      "Ġtrial": 9184,
      "Col": 9185,
      "Ġchann": 9186,
      "ĠÃį": 9187,
      "Ġdirector": 9188,
      "dem": 9189,
      "ĠpÃ´": 9190,
      "Ġina": 9191,
      "ĠApesar": 9192,
      "Ġparecer": 9193,
      "ĠWork": 9194,
      "Ġcompartilhar": 9195,
      "Aut": 9196,
      "Ġble": 9197,
      "Ġabra": 9198,
      "Ġouro": 9199,
      "aixon": 9200,
      "Ġtooth": 9201,
      "Ġplataformas": 9202,
      "Ġaproximadamente": 9203,
      "My": 9204,
      "free": 9205,
      "Ġinches": 9206,
      "Ġcomida": 9207,
      "Ãºcar": 9208,
      "ĠnotÃŃcia": 9209,
      "irect": 9210,
      "Ġmeia": 9211,
      "Ġoperating": 9212,
      "Ġreduction": 9213,
      "ĠÃ³timo": 9214,
      "ĠLake": 9215,
      "gumas": 9216,
      "Ġsuffering": 9217,
      "ĠOffice": 9218,
      "Ġfaixa": 9219,
      "ĠLima": 9220,
      "anges": 9221,
      "Ġconvent": 9222,
      "Ġload": 9223,
      "anguage": 9224,
      "IB": 9225,
      "Ġingress": 9226,
      "Ġrecovery": 9227,
      "Ġcontaining": 9228,
      "Bl": 9229,
      "UC": 9230,
      "itt": 9231,
      "ĠPeter": 9232,
      "ĠObs": 9233,
      "Ġinfect": 9234,
      "Ġdestaca": 9235,
      "ĠEstadual": 9236,
      "ĠRussia": 9237,
      "ĠdÃŃ": 9238,
      "igu": 9239,
      "Ãªnio": 9240,
      "Ġfacilit": 9241,
      "Ġfacilities": 9242,
      "Ġdesejo": 9243,
      "Part": 9244,
      "Ġprove": 9245,
      "berto": 9246,
      "Ġproved": 9247,
      "Ġflight": 9248,
      "Ã©dia": 9249,
      "Ġpublicado": 9250,
      "Ġproteger": 9251,
      "Ġciclo": 9252,
      "Ġsimult": 9253,
      "Ġgrown": 9254,
      "Ġunderg": 9255,
      "lets": 9256,
      "ĠManagement": 9257,
      "Ġpotentially": 9258,
      "Ġplanejamento": 9259,
      "TER": 9260,
      "redo": 9261,
      "rian": 9262,
      "Ġoffered": 9263,
      "ĠlÃŃngua": 9264,
      "Ġaula": 9265,
      "ĠOS": 9266,
      "Ġtested": 9267,
      "Ġequipa": 9268,
      "Ġrealizadas": 9269,
      "Ġmedications": 9270,
      "Ġpubl": 9271,
      "ĠconteÃºdos": 9272,
      "Ã¢nea": 9273,
      "ĠBolsonaro": 9274,
      "inf": 9275,
      "Ġpronto": 9276,
      "Ġcarga": 9277,
      "Ġcrimes": 9278,
      "Ġartistas": 9279,
      "Ġcombin": 9280,
      "Ġbank": 9281,
      "Ġengen": 9282,
      "Ã¢mica": 9283,
[...]
